[PAD]
[UNK]
[CLS]
[SEP]
[MASK]
[رابط]
[بريد] 
[مستخدم]
[unused0]
[unused1]
[unused2]
[unused3]
[unused4]
[unused5]
[unused6]
[unused7]
[unused8]
[unused9]
[unused10]
[unused11]
[unused12]
[unused13]
[unused14]
[unused15]
[unused16]
[unused17]
[unused18]
[unused19]
[unused20]
[unused21]
[unused22]
[unused23]
[unused24]
[unused25]
[unused26]
[unused27]
[unused28]
[unused29]
[unused30]
[unused31]
[unused32]
[unused33]
[unused34]
[unused35]
[unused36]
[unused37]
[unused38]
[unused39]
[unused40]
[unused41]
[unused42]
[unused43]
[unused44]
[unused45]
[unused46]
[unused47]
[unused48]
[unused49]
[unused50]
[unused51]
[unused52]
[unused53]
[unused54]
[unused55]
[unused56]
[unused57]
[unused58]
[unused59]
[unused60]
[unused61]
[unused62]
[unused63]
[unused64]
[unused65]
[unused66]
[unused67]
[unused68]
[unused69]
[unused70]
[unused71]
[unused72]
[unused73]
[unused74]
[unused75]
[unused76]
[unused77]
[unused78]
[unused79]
[unused80]
[unused81]
[unused82]
[unused83]
[unused84]
[unused85]
[unused86]
[unused87]
[unused88]
[unused89]
[unused90]
[unused91]
##D98A
##84D8
##D985
##D986
##D8B1
##D8AA
##A7D8
##D984D8
##D988
##D8A7D8
##D984
##D8A9
D8A7
D8A7D9
##A7D9
##A7D984D8
D8A7D984
##D8A7D9
D8A7D984D8
##D8AF
##D8A7
##D987
D985
D988
##D8B9
##D8A8
##D982
##D983
##D8B3
##D981
D8A8
D981
D8A3
D88C
##D8AD
D8B9
##D989
##8AD8A9
D8AA
D8A7D984D985
##D98AD8A9
##D8A7D984
##D8AC
D984
##D8A7D8AA
D981D9
D981D98A
##D8A7D8B1
D985D986
D98A
##D8B7
##D8B5
##D8A7D986
##8AD986
##D98AD986
##D8B4
##D984D989
##D8B6
##D8AE
##D8B2
D983
D8A5
##8AD8B1
##D8A7D985
##D987D8A7
##D98AD8B1
D8A7D984D8AA
##D8B0
D8AD
##D8A7D984D8
D8B3
##D988D986
D8A7D984D8A3
##D8AB
##D988D984
##D8A7D8AF
##D8B1D98A
D987
##D8A7D8A8
D8A7D984D8B9
##D8A7D8A1
D986
D982
##D8A3
D8B9D984D989
##D984D98A
D984D8
D8A7D8
##D988D8B1
D8A3D986
##D8A7D8A6
##D8A7D8B3
##D8A7D8B9
D8AC
##D984D8A7D9
D8B1
##D8AFD98A
D8A7D984D8B3
D988D8A7D984
D8A7D984D8AD
D8AF
##D987D985
D8B4
##D8BA
##D988D985
D8AE
##D8B8
##D8A7D981
D988D8A7D984D8
D8B9D986
##D984D985
##D984D983
##D8B3D8AA
D985D8B9
D8A7D984D8AC
##D8A7D8AD
##D985D8A7
D8A7D984D8A8
D8A7D984D982
##D8B1D8A8
D8A7D984D986
D8A7D984D8B4
##D8AFD8A9
##D8AAD985
##D8A7D8AC
##D98AD984
##D984D8A7
D8B5
D8A7D984D981
D8A7D984D8AF
##D8B1D8A9
D8A7D984D8A5
D8A5D984D989
##D8A6
##D8B1D983
##D985D986
D987D8B0
##D8B9D8AF
##D8A7D982
##D985D984
D8A7D986
##D98AD8AF
##D8B1D988
D8A7D984D983
D984D984D8
D8A7D984D988
##D985D8A9
##D8A8D98A
D8A7D984D8AE
##D8A7D987
D988D8AA
##D986D8A7
##D98AD8B3
D8B7
D8A7D984D8B5
##D982D8AF
##D988D8AF
D8A7D984D8B1
##D8B9D8A9
D8A7D984D8AAD98A
##D8A4
##D984D8A9
##D8A8D8B1
D8A8D8A7D984
##D8A7D8B5
##D982D8A9
D8A7D984D8B0
##D8AAD8B1
##D984D987
##D988D982
D988D8A3
##D983D986
##D985D98A
##D8AAD98A
##D8AAD987
##D8A7D983
##D986D98A
D8A3D988
##D981D98A
D8A7D8B3
##D8A7D8B7
##D982D98A
##D8A7D8B1D8A9
##D8AAD8AD
D8A7D984D8A7D9
D8BA
##D8A7D8B6
D985D8AD
D985D8A7
##D8A8D8A9
D984D8A7
D984D985
##D988D98A
D8A8D8A7D984D8
D984D984
D8B0
D8AAD8AD
D8A7D984D8B7
##D8B1D981
##D8A7D8B2
##D985D8B1
##D98AD8A7
##D98AD981
##D984D8A7D985
D983D8A7D986
##D986D8AA
D8B9D984D98A
D8AAD8B9
##D8A5
D987D8B0D8A7
##D985D988
##D984D8A7D984
##D984D8A8
##D8A7D98A
##D988D8B3
##D983D8B1
##D984D981
##D988D8AC
D988D985
##D8AED8B1
##D8A8D984
D988D987
##D984D8B3
##D8B3D8A8
##D8A7D986D98A
D988D98A
D8A7D984D8B0D98A
D8A7D984D8AB
##D8AFD985
D8AB
##D983D988D986
##D8A8D8AF
##D988D8A8
D8A8D986
##D8AAD8B9
3230
##D983D984
D987D8B0D987
D8B2
D8A8D8B9D8AF
D8A8D98AD986
##D8B3D98A
##D988D981
##D8B1D8B6
D8A7D984D98A
##D8A7D8A9
##D8AFD8B1
##D98AD8B1D8A9
D988D982
D983D984
##D988D8A7
D8A5D986
D985D8AC
##D8AAD8A8
##D8A7D8AE
##D8AAD8B5
##D8A7D8AFD8A9
D8A7D984D984D987
##D986D8A9
D8A7D984D985D986
##D987D8B1
D8B6
D8A3D98A
##D8A7D8B4
##D984D982
##D985D8AF
##D8A7D8B1D8A7D8AA
D988D8A8
##D8AAD981
D8B3D98A
D8A2
##D8AFD98AD8AF
##D8A7D8B1D98A
##D8AAD8AE
##D8B0D8A7
##D8B4D8B1
##D8A7D984D98A
##D8ADD8AF
##D987D8AF
##D988D8B9
##D8A6D98AD8B3
##D8B5D8B1
D98AD8B9
D8ADD98A
##D98AD985
##D8B3D985
D987D988
##D8ABD8B1
##D8A7D8AB
D985D8B3
##D988D984D8A9
D8A8D8B9
##D8AAD982
D985D8B4
##D8B5D984
C2BB
D981D989
D8A7D984D985D8B9
D988D983
##D8AFD8A7
D988D8A7D984D985
D8AED984D8A7D984
##D985D983D986
##D8AAD987D8A7
D8A3D985
D985D988
D8AAD982
##D8B1D8A7D8A1
D8A7D984D8A7D8B3
D8A7D984D985D8AD
##D985D8A7D984
##D986D8B3
##D8A7D98AD8A9
D988D8AC
D8A3D983
##D8B1D982
##D8A7D986D98AD8A9
##D8ADD8A9
D8B0D984D983
##D988D8B1D8A9
C2AB
##D984D8A7D8AA
D985D8AF
##D8AAD989
D988D8B9
##D988D8A7D8AA
D984D8A3
D8A8D8A3
##D8B1D983D8A9
##D8A7D984D985
##D8B1D98AD982
D984D984D985
D8AAD985
##D8B7D8A9
##D98AD8B9
D8A7D984D987
D985D8B1
D8A7D984D985D8B3
D8A7D984D985D988
##D983D985
##D981D8B3
D8A8D8AF
##D8A1
##D8AED8B5
##D8A7D984D8A9
##D8AAD988
D8A7D984D8B9D8A7D985
##D986D8AF
D983D985D8A7
D8A7D984D989
D8AAD986
##D8A7D981D8A9
##D8B9D984
D988D8B3
D8A7D984D8BA
##D98AD8B2
##D983D8B3
D8A7D984D8A3D985
##D988D8B2
##D8AAD8AC
D8B9D8A7D985
##D988D8B1D98A
D8A7D984D8B2
##D8B1D8AF
##D982D984
##D8ADD98A
D89F
##D986D98AD8A9
D8A7D984D8A7D986
D982D8AF
D984D987
D8A7D984D985D8B1
D987D98A
D8A7D984D985D8AC
D8ADD98AD8AB
D8A7D984D985D8B4
##D8AAD986
##D8ABD984
D8A8D8B1
D8A8D8B4
D8A8D985
D8A7D984D8A7
D8A7D984D8B3D98A
##D988D98AD8A9
D985D982
##D8A7D8AFD98A
##D8A7D8B1D983
D8AAD8AC
##D984D8A7D982
D982D8A8D984
D984D98A
D985D8B3D8AA
D988D8A5
D988D8AD
##D8AFD8AF
##D984D8B9
##D988D989
D8A3D8B3
##D981D8B1
##D8ABD98AD8B1
D985D8B5
D8A7D984D8B9D8B1D8A8
D98AD985D983D986
D8A7D984D985D8B3D8AA
D8A7D984D98AD988D985
D8B9D986D8AF
##D981D8B6
##D98AD8AA
##D8A7D984D98AD8A9
D98AD982
323031
##D8ACD984
D985D8A8
##D8B9D8B1
##D8A7D8B9D8A9
D8A7D984D8AAD8B9
##D98AD986D8A9
##D985D98AD8B9
D988D985D986
##D8A6D8A9
##D988D8A7D986
##D8B7D8B1
##D985D8B9
D8A7D984D8A2
D8ADD8AAD989
D8BAD98AD8B1
##D983D98A
##D8B3D8A9
##D988D8B6
##D8A7D8A8D8A9
D98AD8AD
D988D986
D988D8B2
##D988D8A9
D8A7D984D985D982
##D8B1D8AC
##D988D982D8B9
D8A7D984D985D8AF
##D8B0D984D983
D8A8D984
D8A8D987
##D8A7D8B0
D8A7D984D8A3D8B3
##D98AD8A8
##D988D8AA
D8A8D8B9D8B6
D8AAD8B4
D8A3D8B9
D98AD8AC
D983D8A8
D8A8D8AD
D8A7D8AD
D985D8AA
D8AAD8B5
D8A7D8AE
##D8B1D8A7D8B1
##D8AED8AA
##D986D987
D8A7D985
##D98AD8A7D8AA
##D984D8AD
##D8AAD8AF
D8B9D8A8D8AF
D8A7D8B9
##D984D98AD985
D8B9D984D98AD987
##D984D8BA
D8A7D8A8
##D8B6D8A7
##D8AAD983
D8A7D984D985D8B5
D98AD988D985
D8A7D984D8B9D8A7D984D985
D8A3D986D987
##D8B9D985
##D988D985D8A9
##D8A8D8AD
D8AAD8B3
##D983D8AA
##D982D8B7
D988D981
D8B9D985D984
##D8A7D8B5D8A9
##D983D8A7D986
D8A7D984D985D8AA
##D8B1D8A7D8A6
##D8A7D984D8A7
D8A7D984D8AFD988D984
##D982D8AFD985
D8AAD8B1
D988D984D8A7
D982D8A7D984
##D984D988
D8A3D8A8
##D98AD8A7D986
D98AD986
##D981D8A9
##D8A7D985D984
D8A7D984D8B9D985D984
##D8B6D8B9
##D8A7D984D8A8
D988D8A7D984D8A3
D8B1D8A6D98AD8B3
##D8A7D8A6D98AD8A9
D985D8A4
##D984D98AD8A9
##D981D8B9
##3030
##D8B2D8A9
D983D8A7D986D8AA
##D8B9D8A8
##D8AAD8B4
D988D984D983
D984D983D986
##D982D8AA
D988D987D988
D988D981D98A
##D8ACD8B1
D8A7D984D8B1D8A6D98AD8B3
##D8B8D8B1
D985D8ADD985D8AF
##D987D8A9
##D986D8A7D8A1
##D98AD983
##D8AAD985D8A7D8B9
D8ABD985
##D986D8A7D983
D988D8A7D8AD
##D8B5D988D984
##D8AFD98AD8AFD8A9
##D98AD8B4
##D8B1D983D8B2
##D982D98AD982
##D8A7D8B9D8AF
E280
##D8B8D8A7D985
D8A7D8B1
D8A7D984D8AAD8AD
D8A3D983D8ABD8B1
D8A7D984D8B6
D8AAD8A3
##D8A7D985D8AC
D984D8B9
##D984D8B7
##D8AFD8A7D985
##D982D8B1
##D8A7D8B3D8A9
##D984D8A7D986
##D8A8D8A7D8B1
##D98AD8AC
D8A7D984D8A5D8B3
D8A3D8AD
##D8B7D982D8A9
##D984D8AA
D98AD983D988D986
D8AAD8B7
D988D8A7D984D8B9
##D8ACD985
D981D8A5
D981D8B1
##D8AED8B1D989
##D8BAD98AD8B1
##D987D985D8A7
##D8B1D98AD8A8
##D8B5D8A9
##D8A7D8B6D98A
##D988D8A7D8B1
##D98AD984D8A9
##D8A7D8B3D98AD8A9
##D8A2
##D8ACD8A9
D8B3D8A8
##D986D989
D8B8
D984D8A7D9
D98AD8AAD985
##D986D8A7D986
D8B9D985
D8A8D987D8A7
D985D8B7
D986D981D8B3
D8AAD8AF
##D8AED8AAD984D981
D8A8D8B4D983D984
D985D8ABD984
##D985D987
D8A7D984D984
D988D984D983D986
##D8A7D8A6D984
##D984D8A7D8AB
D981D98AD987D8A7
##D988D983
##D8B9D98A
D8A7D984D988D8B7
D988D982D8A7D984
D8ACD985D98AD8B9
D8A3D8B5
##D98AD986D98A
D98AD8AA
##D8B3D8A8D8A8
D8A7D984D985D8A4
##D8B0D987
##D8A7D984D8A7D8AA
##D985D8A7D8B1
##D8B1D8AD
D8A7D8B3D8AA
D984D8A8
##D8B5D981
##D8B1D98AD8AF
##D8A7D8B1D8AC
D8A5D8B0D8A7
3139
D8B3D986
D986D8AD
##D988D8AFD8A9
D988D982D8AF
D984D8AD
D984D8AA
##D8A7D8ADD8A9
D8A3D8ADD8AF
D8ADD8B3
D8A7D984D8B3D8B9
##D988D8B1D98AD8A9
##D981D8B6D984
##D8A7D8B3D98A
D89B
D8AAD981
D8AAD988
D987D986D8A7D983
D8A7D984D8ADD983
D8AED8B7
##D8B4D981
D8A7D984D8AAD986
##D8A7D8B1D98AD8AE
D8A7D984D8A8D8B1
D984D986
##D8A7D8AFD8B1
##D8A7D8A6D98A
E28093
##D8A7D8A8D8A7D8AA
D8A3D98AD8B6D8A7
D8A7D984D985D8AAD8AD
D8A7D98A
D8ADD988D984
D985D8B5D8B1
##D8B1D8A7D982
D981D98AD987
D8A8D8B7
##D8B6D8A7D8A1
D98AD8B3D8AA
##D8A8D987
D8A7D984D8A8D984
D984D987D8A7
##D8AFD98AD985
##D8A7D986D988D986
##D8AFD8AB
D988D984
##D98AD986D8A7
##D8A8D8AA
##D8A7D981D8B8
##D98AD987
##D8B1D988D8B9
D8A5D984D8A7
##D986D98AD986
D8A7D984D8AAD8AC
##D8AFD989
##D982D8A7
D8A3D8B4
D8A7D8AC
##D8AAD8A7D8A8
D8A7D988
##D8AFD98AD8AB
D984D983
##D8AAD8AED8AFD8A7D985
D8AFD988D984
##D98AD8B1D8A7
##D8A3D8B3
##D8AED984
D984D8A5
D8A7D984D8B9D8B1D8A8D98AD8A9
D988D8A7D8B3
D8A7D984D8A7D985
D8A8D8A7D984D985
D8A7D984D8A3D988D984
D8B9D8AFD8AF
##D8A7D8AAD987
##D984D8A7D98A
D98AD8AF
D98AD8B4
D985D984D98A
##D985D8A7D986
##D8A8D8B9
D8B4D98A
D8A8D8A5
##D8A7D985D8A9
D8AAD8ADD8AA
##D8A7D8B1D98AD8A9
##D984D98AD984
D8A7D984D8A8D8AD
##D8A8D98AD8A9
##D983D98AD8A9
D986D982
D985D986D8B0
##D8A8D8A7D8AA
D8AFD988D986
D988D983D8A7D986
##D988D8B7
D988D8B1
##D8A7D8A6D8B1
D8A7D984D8A3D8AE
D8A8D8A3D986
D988D8B4
##D8A7D8BA
D98AD8B3
D984D984D8A3
D8A3D8AE
D8A7D984D8B0D98AD986
D8A7D984D8A7D8AC
D8A7D982
##D8A7D982D8B9
##D985D8AA
D988D8A7D984D8B3
##D981D984
D8A8D8B3
D984D988
##D8AAD985D8B9
##D985D98AD984
##D987D984
D8A8D8AA
##D8B2D98A
##D8B1D983D8A7D8AA
D8B9D8A8D8B1
##D8B1D989
##D984D8B3D8B7
D8B3D8AA
##D984D8A7D981
D983D8B3
D8AAD8B3D8AA
##D984D988D985
D985D983
##D8A7D8A8D8B9
D984D8A3D986
##D988D8AFD98AD8A9
##D986D8B9
D8A7D983
D988D8A7D984D8AD
##D8B7D981
D8A5D984D98A
D8A7D984D8B1D98A
##D8A7D8B9D8A8
D984D8AC
##D988D986D98A
D981D8A5D986
##D8B8D985
D988D8A7D986
D988D987D98A
##D985D98AD8A9
##D8AFD8A7D8B1D8A9
##D985D988D8B9D8A9
##D988D8B5
D8A7D984D8A7D8AD
D8AAD983D988D986
D981D982D8B7
D8ADD982
D8A8D98A
D8A7D984D988D8B2
D8AAD984D983
##D8B7D8A7D8B9
D8A7D981
##D986D8A7D985D8AC
D8A7D984D985D986D8AA
D8A7D984D8B5D8AD
D988D8AE
D984D984D8A8
D8A8D8A7D8B3
D8A7D984D985D8A8
##D8AAD8A8D8B1
D8AAD8AA
##D8A7D8AFD98AD8A9
##D8B6D8B1
D8B9D984D98AD987D8A7
##D8A7D8B5D984
D8A7D984D8A7D982
##D988D98AD8B1
D8B4D8B1D983D8A9
##D8A8D8A7D8A8
##D983D8AF
D984D984D8B9
D985D986D987D8A7
##D8B5D8AF
##D8B1D8B9
##D8B1D8A8D98AD8A9
##D988D8A7D8A1
##D8A7D984D8AD
D8A3D8AF
##D8A3D8A9
##D8B6D8A7D981
D8B1D8B3
##D8B1D8B3
D8A8D988
D986D8B3
##D8BAD985
D8A7D984D985D8AAD8ADD8AFD8A9
##D8B9D8A7D8B1
##D8B6D8A7D981D8A9
##D8ACD987
D984D984D8AD
##D988D984D989
D988D8AF
D981D987
##D8AAD98AD986
##D985D98AD986
##D8AAD8B1D8A9
D8A8D982
D8A7D984D8B4D98A
D988D8B0D984D983
##D8B1D98AD8A9
D985D8AE
##D8B2D98AD8AF
##D8B1D981D8A9
##D8A8D98AD982
##D8A7D8B1D8B3
##D8A7D986D8A8
##D985D8B3
##D8AED8AFD985
D8A7D984D8AAD988
D8A7D984D8ADD98A
##D8A7D8AED984
D8A8D983
##D988D982D981
##D984D8AC
##D8AAD8ADD8A7D8AF
D8A2D8AED8B1
D988D8A7D984D8A8
D988D8A7D984D8A5
D8B4D8AED8B5
D988D8A7D984D8AAD98A
D8AAD983
##D98AD981D8A9
D8A3D8AED8B1D989
##D8A7D8A8D982
##D8B2D984
D8A7D984D8B9D8B1D8A7D982
##D987D8A7D8A8
D8A7D984D985D8B7
D988D8B7
##D984D8A7D8AD
##D8AAD984
D984D98AD8B3
D985D981
##D98AD8A7D8AFD8A9
##D8A7D982D8A9
D985D8ACD984D8B3
D986D987
D8A7D984D985D8AE
D8AAD8A8
D985D988D982D8B9
##D98AD986D98AD8A9
##D8A3D986
D8A7D984D8ACD985
D98AD8ACD8A8
D8A7D984D981D8B1
D8A7D984D8ACD8B2
##D8B1D98AD8B1
D8A7D984D985D987
##D988D986D8A7
D8A3D988D984
D983D98AD981
D8A7D984D985D8BA
D8A7D984D8A5D8B3D984D8A7D985
##D8B6D8A9
##D8B1D98AD982D8A9
##D988D987
##D987D8AFD981
D988D8A7D984D8AA
##D8B3D8A7D8AA
D984D982
D8A3D985D8A7D985
##D982D98AD982D8A9
##D8A7D8B9D8A7D8AA
D8A7D984D8A7D8ACD8AAD985D8A7D8B9
D8A7D984D8A3D985D8B1
D8A8D8B3D8A8D8A8
##D8A8D98AD8B1
D8A7D984D8B1D988
D8ACD8AFD8A7
D988D8A3D986
D8B9D986D8AFD985D8A7
D8A7D984D982D8B1
##D985D984D983
D8ACD986
D8B5D988D8B1
D981D982D8AF
##D8BAD98A
D8B5D8AD
D8B3D983D8B3
D8ADD985
D8A8D8A7D984D8A5
##D8A7D985D8B9D8A9
##D8A7D8A6D8AF
D8A7D984D988D982D8AA
##D98AD8B7
##D8B0D983D8B1
##D8ACD8AF
##D8B1D8AA
##D8B2D98AD8B2
D8A5D8B9
##D988D8A7D8AC
##D8A7D98AD8A7
D8ADD8A7D984
##D8B8D98AD985
##D8A7D8AFD8A7D8AA
##D8ADD986
##D98AD98AD986
D8A7D984D8AAD982
3130
D8AAD8B1D983
D8AAD8AE
##D8AFD985D8A9
D8B7D8B1D98AD982
D8A7D984D8B9D8A7D985D8A9
##D98AD8B1D8A7D986
##D8B9D8A7D8AA
D8A7D984D8A3D8B9
D988D8B5
323030
##D8B2D8A8
##D988D984D98A
D988D984D985
##D8A7D988D986
D8A7D984D8B9D985
##D984D98AD8A7D8AA
##D983D8AAD988D8B1
D984D8B3
##D984D8A7D8A8
D8A7D984D8A7D8B9
D983D8A8D98AD8B1
D984D8B0
##D8B6D988D8B9
D8A7D984D8B9D984D985
D988D984D98A
D8A7D984D8A5D986
D8A5D8B3
D8A7D984D8A7D8AE
D988D8A7D984D8AF
##D8AAD987D985
D8A7D984D986D8A7D8B3
D985D8AED8AAD984D981
D8A7D984D8ADD983D988D985D8A9
##D981D98AD8B0
##D983D8A9
##D984D8A7D8AC
D985D985D8A7
##D8AFD98AD988
##D8B7D8B9
##D8AFD985D8A7D8AA
D8A7D984D985D981
D8A7D984D8AFD988D984D8A9
D8A7D984D8B3D8B9D988D8AFD98AD8A9
D8AED8A7D8B5D8A9
##D988D8A7D984
D8ACD987
##D988D8A7D8A8
D8A7D984D983D8ABD98AD8B1
D8A7D984D8A5D8B9
D8A8D8AC
D8A3D981
D8A3D981D8B6D984
##D8B1D988D981
D8A8D985D8A7
D8ADD8AF
##D8B1D8A7D8A6D98AD984
D8A7D984D8AED8B7
D8AFD988D8B1
##D98AD982
##D8A7D985D8A7
D988D8A7D984D8B4
D8A7D984D985D8A7D8B6D98A
##D8AFD98AD8A9
D981D98AD985D8A7
##D8BAD8B7
D985D986D987
D988D8B6D8B9
D8A7D984D8ACD986
D982D98A
D8B9D984D985
##D8A7D8A8D984
##D8A8D8B7
D8A7D984D8B9D8AFD98AD8AF
D8ABD984D8A7D8AB
D8ACD8AFD98AD8AFD8A9
##D8ACD8B1D8A7D8A1
D8A7D984D8A7D982D8AAD8B5
D8A7D984D8A5D986D8B3
D984D8AFD98A
##D8B8D987D8B1
D982D8B1
D983D8A8D98AD8B1D8A9
##D8ADD984D8A9
##D8A7D8B1D983D8A9
##D988D8AFD98A
##D8B8D985D8A9
##D98AD8A7D8B1
##D8B1D8A8D8B9
D8A7D984D8A2D986
##D8A7D986D98AD8A7
D8B9D8AFD985
D8A7D984D8A5D985
D8A7D984D8A3D985D8B1D98A
D8A7D984D8A3D988D984D989
D8ACD8AFD98AD8AF
D8AFD8A7D8AED984
D8A3D8AC
D8A7D984D8ACD987
##D98AD984D98A
##D8A7D8AAD987D8A7
##D988D986D8A9
D988D8A7D984D8AC
##D8A4D988D984
##D8A7D8B1D8AF
D8A3D986D987D8A7
D988D8A7D984D8B0
D8B6D8AF
D8B9D8A8
D8AFD8B1
D981D8B9
D8A7D984D8ABD8A7D986D98A
D8A7D8B3D8AAD8AED8AFD8A7D985
D988D8AAD8AD
##D988D98AD984
D8A3D982
##3230
D8A7D984D8AED8A7D8B5D8A9
D8A7D984D8A3D985D986
D985D8AFD98AD986D8A9
D988D8AAD8B9
##D8B1D8A7D8AA
D8A7D984D8A3D986
D8ADD98AD986
D8B9D982
##D8B1D98AD985
##D8B1D98AD986
D988D987D8B0D8A7
D8B1D98A
D8B5D981
D985D8ACD985D988D8B9D8A9
D8B3D8B9
##D8B4D98A
D8A7D8B4
##D8A7D8B9D8AFD8A9
D8A3D8ACD984
##D8A8D8A7D8AD
##D8A7D984D989
D8B9D985D984D98AD8A9
D987D984
D98AD981
##D8AAD981D8A7D982
D8A7D984D8AAD989
##D988D8AD
D986D8AC
D988D8A7D8ADD8AF
D8A3D8AB
##D8A7D987D8AF
D8A7D984D981D984D8B3D8B7
D985D8AB
##D8B7D8A7D8B1
D988D982D8AA
D988D985D8B9
D988D985D8A7
D988D8A7D984D986
D8A7D984D985D8B1D983D8B2
##D8A7D8B7D982
##D8A7D984D8AB
D8A7D984D8B7D8A8D98A
D988D8ACD988D8AF
D8A7D984D8A7D8B3D8AA
##D8A7D8A6D8A8
D8A3D987D985
D8A7D984D8AAD8B5
D988D8B2D8A7D8B1D8A9
D8A7D984D8AFD8B1
##D988D8A1
D8A8D8B5
##D8A7D988D984
##D988D8ACD8AF
##D988D8AB
D8A7D984D985D984D983
D98AD8A7
##D8AAD8B2
D983D988D8B1
D8A7D984D8B4D8B9D8A8
D8A7D986D987
##D988D8B1D98AD8A7
D8A7D984D984D98A
##D8AAD8A7D8AC
##D98AD8A6D8A9
D988D8B2D98AD8B1
##D981D8A7D8B9
##D985D984D983D8A9
D985D987
##D8A8D8AFD8A3
D8A7D984D8AED8A7D8B1D8AC
##D8B1D8A8D8A9
D8ADD8A7D984D8A9
D982D8A7D8A6
D983D984D985
D984D8AF
##D8A7D8B8
D984D984D8B4
##D8A7D8A6D982
##D8ADD8A7D8AA
##D8B6D985
D983D8B3D8A7D8B1D8A9
D981D8B1D98AD982
D8A7D984D8B1D98AD8A7D8B6
D984D984D8AC
D8A7D984D8AAD8B7
##D8B1D98AD981
##D8B7D981D8A7D984
D983D986D8AA
D8ACD8B2
D98AD8B5
D985D984D98AD988D986
D984D984D8B3
D982D8B5
D8B0D8A7D8AA
##D985D984D8A9
##D8A7D981D8B8D8A9
##D983D8B1D98A
##D8A7D8A8D8B9D8A9
##D984D8B9D8A8
D982D8A7D985
D983D8ABD98AD8B1
D8A7D984D986D987
D8A7D984D8A3D8AD
##D8A8D982
D98AD8A4
D8A3D8A8D988
D8A8D8A7D984D8B9
D988D8A7D984D8AE
D8A7D984D8B9D982
D986D8ADD988
D8A7D984D985D8ACD8AAD985D8B9
##D984D988D985D8A7D8AA
##D8A7D986D8A7
##D8B7D984D8A7D982
D8A7D984D8AFD983D8AAD988D8B1
##D8A7D987D8B1D8A9
##D8B4D8A9
D8A7D984D8B9D8B1D8A8D98A
##D98AD8AFD8A7
##D8B9D8AA
##D8A7D8B0D8A7
##D8A7D981D98A
D8A7D984D986D8B3
D8A7D984D8AAD8AF
D8A7D984D985D986D8B7D982D8A9
##D8B1D8A8D98A
##D8A7D8AAD981
D8A7D984D981D8B1D98AD982
##D8A7D98AD8B1
##D8B3D986
D8B6D985D986
##D983D8A7
##D8B1D988D8B3
D8A7D984D982D98A
##D984D8ADD8A9
##D8A7D981D982
D8A7D984D8B4D8B1
D984D981
D8A7D984D8B8
D8A7D984D8B1D8B3
##D8A7D8A8D8B7
##D8A7D8B5D8B1
D8AFD8A7D8A6
D8A8D8B1D986D8A7D985D8AC
D8A7D984D8B3D984D8B7
##D8A7D984D8AA
##D8A7D981D98AD8A9
D8A3D985D8A7
D988D8A7D984D8A7D9
##D988D98AD8AA
##D988D981D8B1
D8A7D984D8B4D98AD8AE
D8B4D987D8B1
D986D981
D8B3D986D8A9
##D984D8A7D8A1
D988D8BAD98AD8B1
##D8AFD8A7D988D984
##D8B9D8B6
D8ACD985
D984D8B4
D985D986D8B7D982D8A9
##D982D982
D985D8B6
##D8AAD985D8B1
D987D986D8A7
D8A7D984D8A8D8B7
D985D8B1D8A9
D986D8AA
##D8B7D984D982
D8A7D984D986D8B8D8A7D985
##D988D8ACD987
D8A7D984D8ABD984D8A7D8AB
##D982D985
##D8A7D8B9D98AD8A9
##D8ACD98AD984
D8A7D984D8B4D8AED8B5
D8A7D984D986D981
##D988D8A8D98A
D8A7D984D8B4D8B1D983D8A9
##D988D8B3D8B7
D988D8A3D8B6D8A7D981
##D8A7D984D8AF
D8A7D984D8AAD8B3
D8A7D984D8AAD981
##D8AAD8A8D8A7D8B1
##D985D98AD985
##D8B4D8A7D8B1
D8A3D8ADD985D8AF
3135
##D8AAD98AD8ACD8A9
D986D8B8D8A7D985
##D984D8A7D98AD8A7D8AA
D8A7D984D8A3D985D98AD8B1
##D8AED8B1D8AC
##D984D988D8A8
D8A3D984D981
D988D8A7D984D8B5
D8AFD988D984D8A7D8B1
D8A7D984D8ACD8AFD98AD8AF
##D8B1D8A7
D8A7D8AF
D8A7D984D8B3D984D8A7D985
D8A7D984D981D98A
D8A7D984D8A7D8AAD8ADD8A7D8AF
##D987D8A8
D8A7D984D8ADD8B1
D8ADD983
D8A7D984D8B9D986
D8A8D8A7D984D8A3
D8A7D984D8ABD982
##D8A7D986D8A9
##D8AFD8A7D8AF
##D8A7D8B9D98A
D985D8B9D8AF
##D8A7D8AFD984
##D986D8AAD8A7D8AC
##D8A7D984D981
##D984D982D8A9
##D8B6D98A
##D8A7D8B1D8A8
##D8B9D98AD8A9
D984D984D8A5
##D8ACD8A8
D8A7D984D982D8A7D986D988D986
D8A7D984D988D8B7D986D98A
D8B4D98AD8A1
D984D987D985
3132
D985D8AFD98AD8B1
D984D8A7D986
D8A7D984D8A3D8AF
D988D8B9D984D989
##D8A8D8A7D8A1
##D8B1D98AD8B7
##D8A7D8B3D8A8
##D8A7D8ACD8A9
D8A7D8B5
##D987D988D8B1
D98AD982D988D984
##D8B9D8AFD8A7D8AF
##D8B8D98AD981
##D8ACD986
D985D983D8A7D986
D986D988D8B9
D8B9D8B1D8B6
##D984D8B5
##D983D988
D988D8A7D984D982
D8A7D987
##D8B3D98AD986
##D8A7D8AFD8B1D8A9
##D8B3D983D8B1
D8A7D8A8D986
D8ACD8A7D8A1
##D8B7D985
D8A5D8B0
##D8AAD8B1D8A7D8AA
##D8B5D8B1D98AD8A9
D988D8A7D8ADD8AFD8A9
D8B0D983D8B1
D8A7D984D8ADD98AD8A7D8A9
D988D8A5D986
##D8ADD8A7D8A8
D982D8B6
D8A7D984D8AAD8B4
##D8A7D8A8D982D8A9
D8A3D985D8B1
##D8B7D98AD8B9
D98AD8B1
##D986D8A7D988D984
##D8A7D8ADD98AD8A9
D8A7D984D8AAD8B1
3134
D985D8B1D983D8B2
##D8A7D985D984D8A9
D983D988D8B1D988D986D8A7
D988D8AAD985
##D984D98AD986
D98AD8AE
D8A7D984D8AAD8B9D984D98AD985
D8A7D984D8AED8A7D8B5
##D8BAD8B1
D988D8A7D984D981
D984D985D986
##D98AD8A7D987
##D982D8A8D984
D988D8ACD987
D985D8B4D8B1D988D8B9
D8A7D984D8B3D8A7D8A8D982
32303230
D8A7D984D8AFD988D984D98A
D8A7D984D985D983
##D8AAD8B3
D8A8D98AD8A7D986
D8AED8B5
D98AD8AAD8B9
##D8AAD8B1D986D8AA
D8A8D981
D986D981D8B3D987
##D988D986D98AD8A9
D8AFD8B9
D8B9D8AF
D8B9D985D8B1
D8A7D984D984D8AC
D8A7D984D8B1D8A6D98AD8B3D98AD8A9
##D8ACD98A
D8B9D8B4D8B1
D8A5D8AFD8A7D8B1D8A9
##D983D8ABD8B1
##D8B3D98AD8A9
D8A7D984D8B9D8AF
D984D8AFD989
D8AAD8A7D8B1D98AD8AE
D8A7D984D8AFD98AD986
D8A7D984D8A8D986
##D8B9D989
##D98AD8A7D8B1D8A7D8AA
##D983D8B1D8A9
D985D8B3D8AAD988D989
D8B3D986D988D8A7D8AA
##D988D8A7D8B9
##D8A7D984D8AC
D8A3D8BA
D8B9D986D987
D8B1D8AD
##D8A7D988
##D8A3D8AA
##D8AAD981D8A7D8B9
D8A7D984D8AAD8A3
D8A7D984D8B5D981
D8A7D984D985D985D984D983D8A9
D8B7D984D8A8
D985D8B2
##D8AFD8AA
D983D8AAD8A7D8A8
##D8BAD98AD98AD8B1
D8B1D8A8
##D8B4D8B1D8A9
##D8A7D8B3D8A7D8AA
##D8A7D8A6D8B9
##D8AFD981
##D8A7D8B3D8A8D8A9
D8A7D984D8ACD8AFD98AD8AFD8A9
##D8B7D8A7D8A1
D8A7D984D985D988D8B3
D8A7D984D8A5D986D8B3D8A7D986
D8AFD98A
##D988D984D987
D8AAD982D8AFD985
D8B3D985
D986D8B5
D8B4D8B1
D988D8A7D984D8B0D98A
D8A3D983D8A8D8B1
##D8B6D985D986
D8A3D985D8B3
##D986D8B3D8A8D8A9
##D8B6D8AD
##D987D985D8A9
D981D8A3
D8ADD8B1
##D8A7D987D8A7
D984D984D986
D8A7D984D8ADD8AFD98AD8AB
D8A7D984D985D8B5D8B1D98A
D8A7D984D8AAD8B1D983
##D8ACD8A7D984
D8B7D8A8D98A
D8B3D988D981
##D8B4D8A7D8A1
D985D8A8D8A7D8B4
##D8A7D8AAD8A8
D8B1D985
D8A7D984D8A3D988D8B1
D8A7D984D985D988D8A7D8B7
D98AD983
##D988D8B6D8AD
3131
##D8B3D8A8D988D8B9
##D8A7D8A6D8AC
##D987D8B1D8A8
D8B4D8A8
##D984D986
D8AAD8B7D8A8D98AD982
##D988D984D988D8AC
##D8A7D8B1D8B9
D985D988D8B3
D8B1D988
D984D983D984
D8A5D986D987
##D983D984D8A9
##D8B2D985D8A9
D986D8B4
##D988D985D98AD8A9
##D984D985D98AD986
##D8A7D987D985
D8A3D8B9D984
D8AAD8B2
D988D8A7D8B6
D8A7D984D8A7D8B1
D8A7D984D8ABD8A7D984D8AB
D8A7D984D986D982
##D8B6D984
##D8ADD982
D8A7D984D982D8B6
D8B9D8AFD8A9
D984D985D8A7
D8A7D984D8AFD8A7D8AE
D984D8AAD8AD
D8ADD984
D8A3D988D8B1
D8ACD8A7D986D8A8
D98AD985D983D986D983
D982D986
##D8BAD98AD8B1D8A9
##D8ADD8AFD8AB
D8A3D8B1
##D8AED8A7D8B5
##D8AED988D984
##D8B1D98AD982D98A
D8AAD8ADD982D98AD982
D983D985
D984D8B0D984D983
##D8B1D8B9D8A9
D8A8D8A7D984D8AD
##D8AFD987
##D8B7D984D8A8
##D8AFD98AD986
D8A7D984D8B4D8B1D982
##D8A7D8AFD8AB
##D8B3D8B7
##D981D8A7D8A1
D984D8B5
D8A7D984D8A3D8B4
D8A7D984D984D8A8
##D8A8D8A7
D8A7D984D8ADD8AF
D8A7D984D8AFD988D984D98AD8A9
##D8AAD98AD8A7D8B1
D8A7D984D988D984D8A7D98AD8A7D8AA
D8A7D984D8A3D8B1D8B6
D988D8B9D8AF
##D982D988D984
##D984D8A7D982D8A9
D981D8AAD8AD
D8B9D8A7D985D8A7
D986D8B9
D8A7D984D8B4D8A8D8A7D8A8
D988D8B3D98A
D8B5D984D989
##D8AAD8AED8A7D8A8D8A7D8AA
D8A7D8B3D985
##D8A7D985D98A
##D8B1D987D8A7D8A8
D8A7D984D98AD985D986
D8A8D8A7D984D8B3
##D982D987
##D8A7D8ADD8A8
##D8A7D8A6D981
D8A7D984D985D8ACD984D8B3
D8A7D984D8A5D8B9D984D8A7D985
##D988D8A8D8A9
D986D98A
D8A7D984D988D8B7D986D98AD8A9
##D985D98AD8B2
##D8ACD8B2
##D98AD8AFD8A9
D8AFD988D984D8A9
D984D984D8AA
##D8B6D988D8B1
D8B9D8A8D8AFD8A7D984
D8A2D984D8A9
##D8AAD8A7D8AD
##D8B5D8A7D8A8D8A9
##D8A7D8ACD987
D8B2D988D8AC
##D984D8A7D983
D986D8B4D8B1
D8A8D8A7D986
D988D8B3D984D985
D8A7D984D8A8D98A
D8A7D984D8B9D8A7D984D985D98AD8A9
D984D8A8D986D8A7D986
##D8B3D8B3D8A9
D8A7D984D982D8AF
D8A7D984D8ADD982
D8A7D8B0
D98AD8A3
D988D8A8D8B9D8AF
D8A7D984D8B3D986
##D8AAD982D8AF
##D982D8A7D8AA
D8A7D984D8A8D984D8A7D8AF
##D984D98AD8A7
##D8ACD8A7D8B2
##D8A7D984D985D98A
D8A7D984D8B4D8B9
D8A7D984D8AFD985
D986D982D984
##D8B7D986
##D8B1D8B1
##D985D8B9D98AD8A9
##D988D98AD8A7D8AA
##D984D983D8AAD8B1
D8A7D984D985D8A7D984D98AD8A9
D8A7D984D8B3D988D8AF
D8A7D984D8ACD986D8B3
D8A7D984D8A7D984
D8AED8A7D8B1D8AC
##D988D985D98A
D985D8ADD8B7D985
D8A8D8A7D8B1
##D8B8D8A9
D8A7D984D8AAD8A7D8B1D98AD8AE
D8A7D984D984D8A7D8B9D8A8
D8A7D984D8B3D98AD8A7D8B3D98AD8A9
##D8AAD985D8A7D985
##D8B3D8B3D8A7D8AA
D8B5D986
D8A7D984D8B5D986
##D8AFD98AD984
D8B3D988D8B1D98AD8A7
D8AAD8AAD985
3138
##D8A7D8A8D98AD8A9
D8A7D984D8ABD8A7D986D98AD8A9
##6572
D8A8D8A7D984D8A5D8B6D8A7D981D8A9
##D8BAD984
D8A7D984D8A7D8A8
##D8ACD987D8B2D8A9
D985D985
D8A8D985D986
D8A8D8AE
D8A7D984D982D8AFD985
D982D8AFD985
D8A8D983D984
D8ADD8B3D8A8
D984D984D982
D8A3D8B5D8A8D8AD
3330
##D98AD8B1D98A
D984D8A7D8B3
D8A7D984D8A8D8ADD8AB
##D8ADD98AD8AD
D98AD8B9D986D98A
D8A7D984D8AED8A7D8B1D8ACD98AD8A9
##D8B1D8ACD8A9
D8A8D986D8A7D8A1
D986D8B8D8B1
D98AD982D988D985
D8A8D8A7D984D986D8B3D8A8D8A9
D8A7D984D8A3D8AED8B1D989
D8B3D8B9D8B1
D8A5D982
D985D8ACD8A7D984
D985D8A7D98A
D984D984D981
##D8AED8B0
D982D8B1D8A7D8B1
D988D8A7D984D8AAD8B9
D8A7D984D8ACD98AD8B4
##D8AED8A9
D8A7D984D8A2D8AED8B1
D987D985
D984D982D8AF
##D8A7D983D984
##D8A7D8AFD987
##D984D985D8A7D986
D8B4D987
##D984D8BAD8A9
D8A3D8ABD986D8A7D8A1
D983D8A7D981D8A9
D8A7D984D8A8D8AF
D8A3D98AD8A7D985
D8AAD982D988D985
##D8ABD985D8A7D8B1
D8A7D984D8B3D988D8B1D98A
##D8AED8A8
D8A7D984D985D8B1D8A3D8A9
D8B9D982D8AF
D8A7D984D984D8A8D986
D985D8AAD8B1
D8A7D984D985D8AFD98AD986D8A9
D8A7D984D8AED984D98A
D8A8D98AD986D985D8A7
##D988D8A7D982
##D8B1D98AD8AD
D8AAD8A4
D8A7D984D8A5D985D8A7D8B1D8A7D8AA
3235
##D988D981D98AD8B1
D8A7D984D8B4D987
##D8A7D8AAD987D985
##D98AD8B5
##D983D8A7D8B1
##D984D8B2
D981D8AAD8B1D8A9
##D8A7D8B6D98AD8A9
D982D8A7D986D988D986
##D988D8A8D98AD8A9
D8A7D984D8A3D985D8B1D98AD983D98AD8A9
D8AAD987
##D983D985D8A9
D986D987D8A7D98AD8A9
##D8B1D988D8AC
##D8ADD986D8A9
D986D8B8
##D8AAD986D8A7
##D988D8B9D8A9
D981D982
D8A8D8A7D984D982
##D8B7D98A
D982D8AFD8B1
D984D984D8AF
D8A7D984D8ADD8ACD8B1
##D8A7D8B5D98AD984
D8A7D8AB
D986D8ADD986
D988D8A7D984D8A7D8B3
D988D983D8B0D984D983
D8A7D984D982D8A7D8AF
##D8A7D984D983
##D8A7D987D8B1
##D988D8A8D8A7
D8A7D984D8B4D8B1D983D8A7D8AA
D982D8A8
D8A7D984D8B5D98AD986
D8A7D984D8B3D8A8
D988D984D98AD8B3
D8A3D986D8A7
D8A7D984D8B4D8B9D8B1
##D984D8A7D982D8A7D8AA
D8A7D8B3D8AAD982
D8AAD982D8AFD98AD985
D8B1D8A3
D8A7D984D8ADD8B5D988D984
D8A7D984D985D8B2
D8A7D984D8A3D8AED98AD8B1D8A9
##696E
##D8A7D8B5D985D8A9
##D988D8B1D8A7D8AA
D8ADD8AFD98AD8AB
##D8A8D8A7D984
D8A7D8B6
D8A7D984D981D8AAD8B1D8A9
##D8ADD8A8
##D8A7D8ACD987D8A9
D984D8B7
D8A8D8BA
##D8A7D8ACD8B9
##D8B1D988D8A7
D8A7D984D987D986D8AF
D8A7D984D985D8AB
##D8A7D8A8D98A
##D986D98AD8A7
##D8A7D988D984D8A9
D8A7D984D8AED985
D8B3D988D8A7D8A1
D985D8BA
##D8A7D988D8B2
D985D98A
##D8B3D8A7D986
D8B1D8A4
D985D986D987D985
D8A7D984D984D8ACD986D8A9
D98AD8A8
##D8A8D8A7D8B1D8A7D8A9
D8A5D984D98AD987
##D981D8B8
D8A7D984D988D8B2D8B1D8A7D8A1
##D8A8D8AFD988
D988D8B5D984
##D8A7D8ADD984
D8A7D984D8B3D8B9D988D8AFD98A
D984D8BA
D8A7D984D8ACD985D987
D8A5D985
##D8AAD8B1D8A7D8AAD98AD8AC
##D8B4D984
D8A8D8A7D984D981
##D8A7D8AAD98A
##D988D986D8B3
##D988D8ACD988D8AF
D985D8A8D8A7D8B1
D988D98AD8B9
D8ACD8AF
D8A7D984D985D8B9D984D988D985D8A7D8AA
##D8A6D8A7D8AA
##D8ACD8B1D8A7D8A1D8A7D8AA
##D8B3D983D8B1D98AD8A9
D8B1D8BAD985
D988D8A7D984D8AB
##D8B0D8B1
D8B9D8B6
D8A3D8A8D98A
##D8B1D988D8B7
##D8B6D8A7D986
D8B1D982D985
D8A8D8AFD988D986
3133
##D8ACD8A7D986
D8AAD8B9D8AF
D988D8AAD986
D8A7D984D8A3D8ADD8AF
D986D98AD983
D8ACD8A7D985D8B9D8A9
D8A7D8ACD8AAD985D8A7D8B9
D8A7D984D982D8B7D8A7D8B9
D8A7D986D8AAD987
D984D984D983
D8A8D8A7D984D8A8
D8AAD8ADD985D98AD984
D8A7D984D8AAD8AE
##D8B8D981
D8A7D984D8B5D8ADD8A9
D8A7D984D985D8B2D98AD8AF
D8B7D8B1D98AD982D8A9
##D8B2D985
D8A7D984D8A3D8B9D985D8A7D984
##D8AFD98AD8A7D8AA
##D984D982D8A7D8A1
##D98AD8A7D8B1D8A9
D8A7D984D8B3D98AD8AF
##D8A8D98AD8A7
D983D8AAD8A8
D8A7D984D8A3D987
##D8B1D985
D8A7D984D985D982D8A8D984
D984D984D8B7
##D8A7D987D98AD985
D8A7D984D8B1D8AD
D982D8B7D8A7D8B9
D8A8D8A7D984D8AC
D988D985D8AD
##D8AAD8B1D983
D8A7D984D985D8B5D8B1D98AD8A9
D984D986D8A7
D984D8AE
D985D8A8D8A7D8B1D8A7D8A9
D985D8B3D8A7D8A1
##D984D8A7D985D8A9
D981D987D988
D8A3D8B9D985D8A7D984
D988D8A7D8B9
##D8ACD984D98A
##D8AAD985D8B1D8A7D8B1
##D984D8AF
D983D8AB
D8A5D8B3D8B1D8A7D8A6D98AD984
D8B9D984
##D8BAD98AD984
D8B9D986D987D8A7
D8ADD988
D988D983D8A7D986D8AA
D8ADD8B2D8A8
313030
D8AAD8B9D8A7D984D989
##D8AFD8B1D8B3D8A9
D8A7D984D981D984D8B3D8B7D98AD986D98A
##D8A7D8A6D987
##D8B3D8B1
D8A7D984D8B0D989
D988D98AD986
D984D98AD8B3D8AA
##D988D985D8A7D8AA
D8B1D8A3D8B3
D984D985D8AFD8A9
D8A7D984D8ADD985
##D8A7D984D8B9
D8A7D984D981D988D8B1
##D987D8AFD8A7D981
D984D8A7D8B9D8A8
##D8A7D983D985
D8A7D984D8B3D98AD8A7D8B3D98A
##D8B1D988D8B6
D984D984D8A8D98AD8B9
##D8B9D8A7
##D8AAD985D8AF
##D8A7D8ADD8AB
32303139
D981D986
D8A8D8AFD8A7D98AD8A9
D988D8AB
3136
##D8A7D8A6D985
D98AD8B9D985D984
D8A7D984D8AAD988D8A7D8B5D984
D981D8B6
##D987D98A
D8A7D984D8B3D988D982
D984D984D8B5
D8ADD8B3D8A7D8A8
D988D8A7D984D8B7
##D8ACD988D985
##D982D98AD985
D8A7D8B7
D8ABD984D8A7D8ABD8A9
D8B9D8A7D984D98AD8A9
##D983D98AD984
##D8ACD8A7D8B1
D8AAD8B9D985D984
D98AD8B9D8AF
D98AD985
##D8A7D983D986
##D8AAD982D8A7D984
##D986D98AD987
D8A7D984D8A8D98AD8A7D986
##D8AAD8A7
D8A7D984D983D988D98AD8AA
D984D8ACD986D8A9
D8AED8A7D8B5
D98AD983D986
D8A7D984D985D988D982D8B9
##D8A7D8ACD8A7D8AA
D8B4D8B9
##D8AAD984D8A7D984
##D8B3D8A8D8A7D8A8
D8A7D984D985D988D8B6D988D8B9
##D984D98AD981
D8B5D8A7D8ADD8A8
D986D8AAD98AD8ACD8A9
D988D8A8D98AD986
D988D8A7D984D983
##D8A7D8B1D98AD8B9
D988D8AAD982
D8B9D8A7D984D985
##D8A7D8A4
D8AFD8A7D8A6D985D8A7
D985D8B7D8ADD986D8A9
D987D8AFD981
D8A7D984D8A3D981
D8AFD8B9D985
##D984D8A7D8A9
D8A7D984D8ADD8B1D8A8
D8A7D984D8AFD8A7D8AED984D98AD8A9
D8B8D984
D8A7D984D8B1D8A8
D8A3D983D8AF
D98AD988D8ACD8AF
##D988D8B6D8B9
D984D984D8BA
##D8B3D985D98AD8A9
D8A7D984D8A3D8B7D981D8A7D984
D988D8A3D983D8AF
##D8A7D8ACD8AF
D985D8AED8AAD984D981D8A9
D984D987D8B0D8A7
D8A5D8B6D8A7D981D8A9
D8A7D984D985D8B4D8B1D988D8B9
D98AD8B2
D985D982D8A7D8A8D984
##D987D986
D988D8B3D8B7
##D8B3D8AAD8B1
##D8B9D98AD8AF
D8A7D984D985D8A7D984
##D8A7D8B9D8B1
D8A7D984D8A5D8B3D984D8A7D985D98AD8A9
##D8B3D984
D8B9D984D98AD983
D8A8D8A7D984D8B4
D8B7D8A7D984D8A8
D8B2D98AD8A7D8AFD8A9
D8A7D984D983D8B1D8A9
D983D988D986
##D8B1D8A7D8A1D8A9
D8AFD985
D8A7D984D8AED8A7D985
##D8A7D8B1D8AA
##D8A7D8A6D8AFD8A9
##D8A2D986
D8A7D984D8B3D988
##D988D8B1D8AF
D984D984D987
D8A7D984D985D986D8AAD8AC
D8A7D984D8A3D8B1D8AF
D8ACD988
D982D988D8A7D8AA
D98AD8AAD8AD
##D8A6D8A7D8B3D8A9
##D8B1D98AD982D98AD8A7
D8A7D984D8A7D8ACD8AAD985D8A7D8B9D98A
D8A7D984D8AFD981D8A7D8B9
##D8B3D8AAD8A7D986
D8A7D8BA
##D8B1D8A7D8A6D98AD984D98A
D8B7D988
D981D984D8B3D8B7
D981D8AA
##D8ADD8B5
D981D98AD8AFD98AD988
##D8A4D984D8A7D8A1
D8A7D984D8B3D985
D8A8D8A7D8B3D985
D8A7D984D988D8AD
D8A7D984D8A5D984D983D8AAD8B1
##D988D98AD986
D988D984D8
D986D8A7D8AFD98A
D8A3D985D986
D8ACD987D8A7D8B2
32303138
D8A8D982D98A
D981D984D8A7
D8ADD982D988D982
##D984D981D8A9
D983D986
##D8AAD8B5D8A7D984
D8A8D8A7D984D986
D983D8B0D984D983
D8ADD8B3D986
##D984D984
##D985D8A8D8B1
D8A7D984D985D8A8D8A7D8B1D8A7D8A9
D8B4D983D984
D8A7D984D985D8AAD8B9
D8A7D984D8B3D981
D8A8D984D8BA
##D8B4D981D989
D985D8B5D986D8B9
D8A7D984D986D8B5
##D985D988D8AF
##D8B4D8B1D98AD986
D8A8D8A7D8A8
3234
D8A7D986D8A7
D8A7D984D8AFD988D8B1D98A
D98AD8B9D8B1D981
D988D8A7D8B4
D983D8AA
D8A7D984D8ACD985D8B9D8A9
##D8A7D985D8A7D8AA
##D8A7D8A6D8B1D8A9
##D8A7D8A6D984D8A9
##D984D985D8A9
D985D988D8B6D988D8B9
##D982D8B1D8A7D8B7
D8AFD98AD986
##D8A7D985D8A8
D988D8A7D984D985D986
D8A8D8A7D8AA
##D98AD8A7D985
##D98AD8B1D8A7D8AA
##D8B1D98AD8A8D8A7
D988D8AAD8B4
D8AAD8B9D8B1D8B6
D984D984D8A7D8B3
##D8A8D8B1D8B2
D988D8A2
D8A7D8B3D8AAD8B9
D8A7D984D8B9D8A8
D8A7D986D8AA
##D981D8A7D8AA
D8A7D984D981D986D8A7D986
D988D8B8
D983D8ABD98AD8B1D8A7
D8B1D981D8B9
##D8A7D98AD8A7D8AA
##D8BAD8A8
D984D8A3D986D987
D8ADD8AFD8AB
D8A7D984D982D8B5
D8A7D984D985D8AED8AAD984D981
D8B5D988D8B1D8A9
D8B1D8A7D8A8D8B7
D8A7D984D983D8AAD8A7D8A8
D986D982D8B7D8A9
3137
D986D8B3D8A8D8A9
##D986D8A8
##D8A7D984D98AD8A7
##D8A4D988D986
D8A8D98AD8B1
##D8A7D8AFD8AA
D983D8B4D981
D988D988
D8AAD8BA
##D8A7D984D8BA
##D8A4D8A7D984
D8A7D984D8ADD8A7D984D98A
D8A8D98AD8AA
D8AED8AFD985D8A9
##D984D8A8D8A9
D8A7D984D8ACD985D98AD8B9
D8AED984D981
##D8B0D8A8
D8A7D984D985D98AD8A7D987
##D8B1D8B7
D8A8D8B4D8A3D986
##D8B4D982
D981D988D982
D8ABD982
D988D983D984
##D8A7D981D8B9
D8AAD986D8B8D98AD985
##D8A7D98AD8AF
##D8AAD8B1D981
D8AAD8B9D8B1D981
D8A7D984D8A7D8AB
D8AAD986D981D98AD8B0
D982D984D8A8
D8B5D8A8D8A7D8AD
D98AD8B3D985
##D8B4D8AD
D983D8B1
D8B4D8B1D983D8A7D8AA
##D98AD8B1D988D8B3
D983D98A
D8A8D98AD8B9
D8A7D984D8A7D981
D8A7D984D8ADD8B3
D988D8A3D8B4D8A7D8B1
##D8B2D98AD986
##6F6E
##D982D8AFD8B1
D8A7D984D8B4D987D8B1
##D8AAD8AED8A8
D8B1D988D8B3
D8B1D98AD8A7D984
D8ACD986D988D8A8
##D983D986D988D984D988D8AC
D8A7D984D8B0D987D8A8
##D8AAD8A9
##D982D98AD8A9
D8A7D984D8A5D8B1D987D8A7D8A8
D8A8D8A7D984D983
D8ACD8B9D984
D8B3D8A7D8B9D8A9
D985D984D98AD8A7D8B1
D8A7D984D983D8A8D98AD8B1
D8A3D985D8B1D98A
D8AAD8B1D983D98AD8A7
##D8A7D8B1D98AD8A7D8AA
D8ADD8B1D983D8A9
##D8B1D8A7D8B9
##D8A7D988D98A
D8A7D984D8B3D8A7D8B9D8A9
##D8A7D8B4D8A9
##D8B3D983D8B1D98A
D8A7D984D986D8B3D8A7D8A1
D8A8D986D8B3
##D8B2D98AD8A9
D985D8B9D987
D8A7D984D988D8A7D982D8B9
##D8A7D985D98AD8A9
D8A7D984D8A7D8B4
D8AAD986D8A7D988D984
D8ADD8A7D984D98AD8A7
D985D8AAD986
D8A7D984D8AED985D98AD8B3
##D8B1D981D8B9
D8A3D8B4D987D8B1
D8B9D984D98AD987D985
D8A7D984D986D981D8B7
##D8B9D8A7D985
D8A7D8AED8AA
D8A7D984D8A3D8B1
D8B4D987D8AF
D8A3D987D984
D8B1D8AF
D8A7D984D8AED8AFD985D8A7D8AA
##D983D8A7D984
D8B9D8B2
D8A7D984D985D8B3D8A4D988D984
D985D984
##D98AD988D986
D982D8A7D8A6D985D8A9
##D981D98AD8A7D8AA
D98AD8B9D8AAD8A8D8B1
##D8AAD8AED8B5
D988D8B5D981
##D982D8A7D8A1
D8ADD8A8
D8A7D984D985D8AED8AAD984D981D8A9
D984D983D985
D8A7D984D8A8D8B1D986D8A7D985D8AC
##D988D985D8A7
D8B8D987D8B1
##D981D8B1D8A7D8AF
D8B7D8ADD986
D985D8A7D983
D8A7D984D982D8A8
D8B3D98AD983D988D986
D8A7D984D982D8A7D987D8B1D8A9
##D8A7D8B2D984
##D981D8A7D8B8
##D8A7D985D98AD986
D8A8D8A7D984D8AA
##D8ABD8A7D8B1
D8A7D984D8A8D8B4D8B1
D8A7D8B1D8AAD981D8A7D8B9
D8A7D984D8A8D984D8AF
##D984D8A7D98AD8A9
##D988D984D8A7
##D98AD8B1D98AD8A9
D8A5D8AF
D8A5D98AD8B1D8A7D986
D8A7D984D988D8B7D986
##D984D8A8D98AD8A9
##D8A6D8A7
D8ACD8B2D8A1
##D981D98AD8A9
D985D8A8D8A7D8B4D8B1D8A9
##D8A7D987D8AFD8A9
##D98AD8B3D98A
D985D8B3D8A4D988D984
D8A7D984D8AAD8B9D8A7D988D986
##D8B1D988D8B1D8A9
D8A7D984D8B5D8ADD98AD8A9
##D988D8A7D985
##D984D8B3D984
D8A7D984D8A3D8B1D8A8D8B9
D8B3D984D8B7
##D8ACD8B9
D988D8ADD8AF
D8AAD985D8A7D985D8A7
##D8B1D98AD8B9
D8A7D984D985D8B3D984D985D98AD986
D8ADD8B5D984
D985D988D8A7D982D8B9
##D8AAD8A8D8B9
D8A7D984D8A7D982D8AAD8B5D8A7D8AFD98AD8A9
D8A7D984D8AAD8B7D8A8D98AD982
D988D8A3D988D8B6D8AD
D988D981D982D8A7
##D8A7D8B1D981
D8B9D985D984D98AD8A7D8AA
D98AD988
##D8A7D986D987
D8A7D984D986D8B8D8B1
##D982D8AFD985D8A9
D8B1D985D8B6D8A7D986
D8A7D8AAD981D8A7D982
##D8A7D8B7D8B1
D8A7D984D981D984D8B3D8B7D98AD986D98AD8A9
D985D8B9D8B8D985
D984D8A7D8AD
##D8B5D989
##D8ABD985
D982D8B3D985
D8A7D984D8ADD983D985
D8A8D8A7D984D8B5
D983D98AD981D98AD8A9
##D8A7D8A6D987D8A7
D988D8A7D984D985D988
D8B5D8ADD98AD981D8A9
D8A7D984D985D8B9D8AF
D8AAD8ADD8AFD98AD8AF
D8A7D984D8A5D982
##D8B1D988D8A8
D8A7D984D985D988D8B3D985
##D8A7D8A6D8B9D8A9
D8A7D8B0D8A7
D8A7D984D8ACD8B2D8A7D8A6D8B1
D988D985D988
##D8A8D8B1D989
D8AFD981D8B9
D8A5D8ADD8AF
##D8A7D98AD986
##D8A7D8A6D985D8A9
D8AFD8A8D98A
D8A7D984D983D987D8B1D8A8
D8A7D984D8BAD8B0
D8A7D984D8A8D8ADD8B1
D8A7D984D8A7D8ACD8AAD985D8A7D8B9D98AD8A9
D988D8BA
D8A7D984D985D988D8A7D8B7D986D98AD986
##D98AD8B1D987
D8A7D984D8ACD8B3D985
D8A7D984D8A8D8B9D8B6
D8A8D987D8B0D8A7
D8A3D986D988D8A7D8B9
D982D8B7D8B1
##D8AED8B5D8B5
D8B4D8B9D8A8
D8A7D984D8B1D982
D8A7D984D8B9D8A7D984D985D98A
D8A7D984D988D982
##D8AAD8AFD8A7D8A1
##D986D8A7D8A6D98AD8A9
##D988D8B1D8A7
D8AFD8B1D8ACD8A9
D8A7D984D8B7D8A7D982D8A9
D8A7D984D985D8B1D8ADD984D8A9
##D8A7D8B1D8A7
D8A8D8ADD98A
D8A7D984D8ABD984D8A7D8ABD8A7D8A1
##D988D8B5D8A7
D981D8A7D984
##D987D8B1D8ACD8A7D986
##D8A7D8A6D8AD
##D8ACD8A7D8AD
##D8A8D8ADD8AB
D8A7D984D985D988D8A7D8AF
##D8ABD8A9
D8A7D984D8AAD8ACD8A7D8B1D98AD8A9
D986D985D988
D8A7D984D8B7D8A8
D8AAD8B7D988D98AD8B1
D984D984D8AE
D987D8A4D984D8A7D8A1
D8A5D8B9D8A7D8AFD8A9
##D8B7D8A8
D988D8BAD98AD8B1D987D8A7
##D8A7D981D8B1
##D984D8A7D985D98AD8A9
D8A7D984D8B3D8A8D8AA
##D8A7D8B1D982
D8A7D984D8A3D8B3D8A8D988D8B9
##6F72
D8A7D984D8ACD987D8A7D8B2
D8B3D8A8D98AD984
##D986D8B3D98A
D8A7D984D985D986D8A7D8B7D982
##D8A7D985D986
##D8ACD8B1D8A9
##D8B7D8B1D8A9
D985D986D8B5
D8A7D984D8B3D986D8A9
##D8A7D8A6D8A9
D8AAD8AAD8B9
D8A7D984D8AAD986D981D98AD8B0
D8ADD8ACD985
##D8A7D8B3D985
D987D98AD8A6D8A9
D98AD982D8AFD985
D8B3D988D982
D8A7D984D8AFD98AD985
D981D8B9D984
D8B5D8A7D984D8AD
D985D8B4D98AD8B1D8A7
D8B9D8A8D8AFD8A7D984D984D987
##D8A7D986D989
D8A7D984D8B7D8B1D98AD982
D8A3D982D984
D988D8B3D8A7D8A6D984
##616E
##D8A8D98AD986
##D8B7D8B7
D8A7D984D985D986D8AAD8AED8A8
##D983D98AD8AF
D8B1D981D8B6
D98AD8B1D98AD8AF
##D8B9D8A7D98AD8A9
D8A7D984D8A3D8B5
D8A7D984D8ADD8A8
D8A7D984D8B3D984D8B7D8A9
##D8B5D8A7D8B1
D8A7D984D8B3D988D8B1D98AD8A9
D8A7D984D8B1D8ACD984
D98AD986D8AA
D8A7D984D984D8BAD8A9
D8A7D984D988D8B1
##D8A8D8B1D8A9
##D984D8B3D984D8A9
D8A7D984D8AFD98A
##D988D8B1D987
D8A7D984D8A3D982
D8A7D984D8AED984D98AD8AC
D986D8A7D8A6D8A8
D8A7D984D982D988D8A7D8AA
##D986D8B3D98AD8A9
##D981D98AD981
##D8A7D981D8ADD8A9
D8AED8AFD985D8A7D8AA
##D98AD8B2D8A9
3530
D8A7D984D8ACD8A7D985D8B9D8A9
D982D8B7D8B9
##D98AD8A7D8A8
D8A7D984D984D988
D8A3D8B3D8B9D8A7D8B1
D8A8D8A3D986D987
D983D8A7D985D984
D8B5D8AF
##D8A7D984D8B3
D983D8A3D8B3
##D8ADD8B1
D8AAD8A3D8ABD98AD8B1
D983D984D985D8A9
D8A7D984D8A5D98AD8B1
##D8B5D984D8A7D8AD
D8A7D984D8A3D985D8B1D98AD983D98A
D8A7D984D985D8A7D8B6D98AD8A9
D988D982D8A7D984D8AA
##D8AAD8ACD8A7D987
D8A7D984D8AFD8B3D8AA
D985D984D981
##D988D98AD8A7
D8B1D8ACD984
D8B9D8B4
##D8B6D98AD981
D8ACD985D8B9
D8A7D984D8ACD8A7D985
D8A7D984D8B4D8B1D8B7D8A9
##D8B1D98AD8AFD8A9
##D8B1D98AD983
D8A8D986D8B3D8A8D8A9
D8A7D984D8A3D984D985
D8A7D984D987D98AD8A6D8A9
D8A7D984D8B9D8A7D8B5D985D8A9
D8A7D984D982D8B1D8A2D986
##D8B1D98AD8B6
D984D984D8AAD8B9
D988D981D982
##D8ADD8AA
##D8B0D98AD8A9
D8A7D984D8B9D985D984D98AD8A9
D8ADD983D985
D988D98AD985D983D986
##D8B4D8B1D8A7D8AA
D8A3D8B1D8B6
D8A7D984D985D8A7D8A1
##D986D988D986
D988D8A7D984D985D8B9
D8A7D984D981D988D8B1D983D8B3
##D8B1D98AD8A7D8AA
D8A7D984D988D8B6D8B9
D8A7D984D8B7D981D984
D8A8D987D8AFD981
D8A7D984D8A7D986D8AAD8AED8A7D8A8D8A7D8AA
D988D987D985
D8A7D8AED8AAD98AD8A7D8B1
D8A7D984D985D8ADD984D98AD8A9
D8A7D984D982D8B1D8A7D8B1
##D8B1D98AD8B3
D988D8AAD8B3
D8A7D984D8AFD988D8B1
##D8ACD8A7D8AC
D8A7D984D983D8B1D98AD985
D8A8D8B3D98A
##D8A7D983D8B2
##D986D8A7D8AA
D8A3D987D985D98AD8A9
D8A5D8B7D8A7D8B1
D8A8D8B0D984D983
##D988D8ACD98AD987
D8A5D984D98AD987D8A7
D8AED8A7D984D8AF
D8A7D984D8B3D98AD8A7D8B1D8A7D8AA
D988D8A8D8A7D984D8AA
D8A7D984D982D986
##D8A7D8A6D8B2D8A9
D8A7D984D8A7D8AAD981D8A7D982
##D988D8A8D8A7D8AA
D988D984D988
##D8B1D8A3
D8A7D984D8A7D988D984
D8A7D984D985D8BAD8B1D8A8
##D984D8B9D8A7D8A8
##D986D8AFD988D982
D8A7D984D985D8B1D8B6
D985D8A7D8B1D8B3
##D8A7D984D987
##D8A3D984
##D987D988D8AF
D8B9D984D8A7D8AC
D8A7D984D986D8A8D98A
D988D8ADD8AAD989
D981D987D98A
##D8B0D8A9
D985D8ADD8A7D981D8B8D8A9
##D8AAD8B4D8A7D8B1
##D8B3D8AAD8A7D8B0
##D8ADD98AD8A9
D8A3D984D985
##D8B1D8B4
##D8B4D8A7D8B1D983D8A9
##D988D8ACD8A9
D8A3D8B1D8A8
D986D8AAD8A7D8A6D8AC
D8A8D8AFD8A3D8AA
D988D8A7D8AE
##D8B3D8A7D985
D8A7D984D8A8D98AD8AA
D8A7D984D8A5D986D8AAD8B1D986D8AA
##D8A7D984D98AD8A7D8AA
##D8A8D984D8A9
D8AFD8A7D8B9
D8A7D984D8B1D8BAD985
##6172
##D8B1D98AD985D8A9
D985D986D8AAD8AC
D8A3D8B3D8A7D8B3
D8B1D8B3D988D984
##D8B1D8A3D8A9
D985D8B5D8AFD8B1
D981D8A7D986
D8A7D984D8ADD984
##D8A7D8B2D985D8A9
D8B7D988D98AD984D8A9
D8B3D98AD986
D985D8B9D8AFD8A7D8AA
D988D8A7D8AA
D8A7D984D8A7D987
##D8B0D987D8A8
D985D8A4D983
D8A7D984D986D8A7D8AFD98A
##D8AAD985D8A7D8AF
D8ACD987D8A9
D988D8AAD8B7
D8ADD98AD8A7D8A9
D8A8D8A7D984D8AF
D8B3D8B1
D8B3D98AD8B1
D8B5D986D8B9
32303137
D8BAD8B2D8A9
D8B5D8BAD98AD8B1D8A9
D8A7D984D8AFD8B9
##D988D984D8A7D8AA
##D8B9D988
##D988D8BA
D986D8B2
D985D8B5D8A7D8AFD8B1
D8B7D8A8
D8A7D8AAD8AE
D8A7D984D8B5D988D8B1
D8A8D8A8
D8B5D8B9
##D8A7D988D8B6
D985D8AAD8AD
##D8AED981
D8A7D983D8ABD8B1
D8A2D984
##D8AFD98AD8B1
D988D8A7D984D985D8B3
D983D8A7D986D988D8A7
##D8A7D986D8A7D8AA
D8A7D984D8B9D985D8B1
D8A7D984D8A7D8AF
##D988D8B4
D984D8AAD8B9
3231
##D985D8A7D8B1D8B3D8A9
D988D98AD8B1
D8A7D984D8A5D8AFD8A7D8B1D8A9
D8A7D984D984D982D8A7D8A1
D8A7D984D985D986D8B2D984
D8A7D984D8A7D8ADD8AAD984D8A7D984
D8A5D986D8AAD8A7D8AC
D8A7D984D988D8B5D988D984
D8A7D984D981D98AD8AFD98AD988
D985D986D8A7D8B7D982
##D981D8AA
D8A8D8A7D984D8AE
D8AAD8B3D8AAD8AED8AFD985
##D8A8D98AD988
D8A7D984D983D8B1
##D8B1D98AD8A7
D8A8D8AFD8A3
D8A7D984D8A3D983
##D8A7D982D8A7D8AA
D8A7D984D8A7D98A
D984D983D8B1D8A9
##D985D988D8B9
D8A7D984D8B9D984D8A7D8AC
D8AFD8B1D8A7D8B3D8A9
D8A7D984D8B2D8B1
D8B4D8A8D983D8A9
D8A3D8B9D984D989
D8ADD983D988D985D8A9
D8A8D8A7D984D8B7
D8AAD8ADD8AFD8AB
##D984D8B3D8A9
D985D983D8AAD8A8
D8A7D984D986D981D8B3
D8A8D984D8AF
D8A8D986D8A7D8AA
##D8B1D98AD8A8D8A9
##D988D8B3D981
D982D986D8A7D8A9
##D8A7D986D8B9
D8A3D8B9D984D986
D8A7D981D8B6D984
D984D8AAD986
##D8B1D98AD8B9D8A9
D8AAD8B9D8AAD8A8D8B1
D98AD8B7
D984D987D8B0D987
D8A7D984D986D988
##D984D8A7D8B9
D8A7D984D8A8D8B1D98AD8B7
D8AAD8AAD8AD
D8A8D8A7D8B3D8AAD8AED8AFD8A7D985
D8AAD8BAD98AD98AD8B1
D8AAD8AFD8A7D988D984
##D8ADD8AB
##D983D8A7D985
##D984D8A7D8A8D8B3
D988D8A7D984D8BA
D8AAD8B1D98AD8AF
D982D988D8A9
D8A7D984D983D8A8
D8B3D98AD8AF
D985D8AFD989
D8A7D984D8A3D983D8ABD8B1
D8AAD982D8B1D98AD8B1
D984D8B2
313939
D982D8A7D984D8AA
##D8A7D8B1D987
##D8ADD985
D988D8B3D8AA
##D8A7D8A8D987
D8A7D8ADD8AF
D982D8AAD984
##D8B3D98AD982
D8B6D8B9
D985D8B9D984D988D985D8A7D8AA
D8A8D8ADD8AB
D8A3D985D98AD8B1
##D8A7D8AFD982
##D984D985D8A7
##D984D98AD982
D8A7D984D8A5D8AE
D8A5D8B4
##D8B3D8AF
D984D8B9D8A8D8A9
D982D98AD985D8A9
D8A7D984D8B9D984D8A7D982D8A7D8AA
D8ACD986D98AD987
D8AED8A8D8B1
D98AD8ADD8AFD8AB
##D985D986D8A9
D982D984D98A
##D8ACD984D8B3
##D8A7D8ACD985
D988D8B9D986
##D988D8ACD988D8AFD8A9
##D8A8D98AD8B9
D8A7D984D8B9D8B3D983D8B1D98AD8A9
D984D985D8B9
D8A7D984D985D8B3D98A
D8A8D985D988
D985D8B1D8B6
D988D8A7D982
##D984D8A7D985D98A
D985D8ADD985D988D8AF
D8A7D984D984D8AD
##D984D98AD8A8
##D8B9D8A7D8AFD8A9
##D8A7D984D8ACD8A9
D8A7D984D985D8B4D8A7D8B1D983D8A9
##D983D986D988D984D988D8ACD98AD8A7
##D8A7D8A6D8ADD8A9
##D985D988D8A7D984
##D98AD8A7D8A1
##D8B2D8A7
##D987D988D984D8A9
##D986D8B3D8A7
D8ADD988D8A7D984D98A
##D98AD981D8A7
D8A8D8B1D988
D8B9D98AD986
##D8AAD988D98A
##D8A7D8AFD989
D8A7D984D8A3D8B1D8A8D8B9D8A7D8A1
D8A7D984D982D8B1D986
##D8B1D98AD8AA
D8A8D8A7D8B9
D8B4D983
D8A7D984D8B5D8ADD98A
D8A7D984D8B3D8A7D8A8D982D8A9
D981D982D8A7D984
D8B4D8B9D8B1
##D984D8A7D987
D984D8A7D98A
##D8A7D8B1D986D8A9
##D8B0D983
D8AAD8B5D985D98AD985
D988D8B6
D8A7D984D8A3D985D985
D8A8D8A7D984D8AAD8B9
D8A7D982D8AAD8B5
##D984D988D986
D8A7D984D982D8AFD8B3
D8A7D984D981D986D98A
D8AAD8ADD985D984
##D8A7D8B1D8B6
D984D982D8A7D8A1
##D8B2D8A7D985
##6C65
D988D985D8B3
D8A5D8A8D8B1
D8ACD8B1
3232
D8A8D987D8B0D987
D8A5D8B7D984D8A7D982
##D98AD8A7D986D8A9
D988D8AAD8A3
##D982D8A8
##D8AAD8B1D8A7
D988D985D8B1
D986D981D8B3D987D8A7
D988D8B9D8AFD985
D981D988
D981D987D985
D983D8B1D8A9
##D984D98AD987
##D8AAD981D8B9
D8B1D8A8D985D8A7
D8B3D98AD8AAD985
D8B4D985D8A7D984
D8A7D984D988D8B2D8A7D8B1D8A9
D8A7D98AD8B6D8A7
##D981D8A7D982
D8B3D988
D988D8A8D8A7D984D8AAD8A7D984D98A
##D8B5D8A8D8AD
D8B9D8B5
D8A7D984D985D8B3D8AAD982D8A8D984
D8A8D988D8B1
##D8AAD988D989
D988D8A7D984D8B1
##D8A7D8ACD8B1
D981D98AD8B1D988D8B3
D983D8ABD98AD8B1D8A9
##D8B3D8B3
##D982D98AD982D98A
##D8AAD988D8A8D8B1
D98AD8ACD8B9D984
D8A7D984D8AAD8B1D8A8D98AD8A9
D8AED984D98A
##D8B1D98AD8ADD8A7D8AA
D982D8A7D985D8AA
D98AD8A3D8AAD98A
D8A8D8A7D984D8A7D9
D8AAD8ADD8AAD8A7D8AC
32303136
D8B3D984D98AD985
D8A5D8ADD8AFD989
D8A3D987
D8ADD8B5
##6174
D8AED8A7D985
D981D984D8B3D8B7D98AD986
D98AD8AAD8B9D984D982
D8A7D984D8ACD8A7D986D8A8
D8A7D984D8A3D985D988D8B1
D985D988D982D981
D8A7D986D987D8A7
D8AAD988D981D98AD8B1
D8A7D984D8AED8A8D8B1
##D988D8AE
##D8AAD8B5D8A7D984D8A7D8AA
D8A5D98AD8AC
D986D8AF
D8B3D981
##D8AED981D8B6
D988D98AD8AD
D8A3D986D8AA
D984D984D8BAD8A7D98AD8A9
##D8AAD8B1D8A7D8AAD98AD8ACD98AD8A9
##D8AFD98AD985D8A9
D8A3D8B9D8B6D8A7D8A1
D8B1D8ACD8A7D984
D981D98AD984D985
##D983D8B0D8A7
D982D988
D986D8B5D981
##D8B3D988D986
D8A3D8B9D984D986D8AA
##D985D986D8A7
##D8A7D8B4D8B1
##D8A7D982D98A
D8A7D984D986D8A7D8B1
D988D8A7D984D8AAD986
D985D988D8A7D8ACD987D8A9
##D984D988D983
##D8A7D8B1D8B6D8A9
##D8AAD8B1D8A7D983
D98AD8ADD8AAD8A7D8AC
D8A7D984D985D8AFD98AD8B1
D8AAD8B6
D8A7D984D8B7D8B1D982
D8A3D8B5D8ADD8A7D8A8
D8B9D984D98AD986D8A7
D8B1D988D8B3D98AD8A7
##D988D8B1D988
D984D8B1
D8AAD8B1D8A7D985D8A8
##D8A7D8ACD8A6
##D986D98AD981
D8A7D8B2
D8A7D984D985D984
##D8A7D8B7D8B9
##D8A7D8B2D98A
D981D985D986
D8A7D984D8AFD98AD985D982D8B1D8A7D8B7
D8B3D8A7D8B9D8A7D8AA
D8A7D984D985D8AFD986D98A
D8A3D8AED8A8D8A7D8B1
D8B6D8B1D988D8B1D8A9
##D983D8A7D986D98AD8A9
##D8B1D8B9D98AD8A9
D8A8D986D98A
D8ADD8ACD8B1
D8A8D8B1D8A7D985D8AC
##D8AAD8B5D981
D8A7D984D8A3D8B4D8AED8A7D8B5
D8A7D984D8AAD983
##D8B4D8B7D8A9
##D8A7D987D98AD8B1
D984D8A7D8A8
D8A8D986D981D8B3
D8A8D8B4D8B1
D8B4D8B1D8A7D8A1
##D8ADD8A7D8A1
D8A5D8B3D8AA
D988D8B9D986D8AF
D8A7D984D8ADD8AFD98AD8AF
D8A7D984D8B4D8AED8B5D98AD8A9
D8AAD985D8AA
D8AAD984D982
##D8ACD8A7D8A8
D984D8AAD982
D8A7D984D8AED8B5
D988D8A7D984D8A7D986
3233
D98AD8A8D8AFD988
D985D984D983
D988D8A7D984D984D987
D8A3D988D8B1D988D8A8D8A7
D8A7D984D8ADD8B2D8A8
D8A7D984D8B7D984D8A7D8A8
D988D98AD8B3
D8B3D8ACD984
##D8A8D98AD988D8AAD8B1
##D987D98AD984
##D8B3D8A7D8A1
##D8AFD98AD982
##D8B0D8AC
##D8B1D981D8B6
##D8AED8B1D8A7
D8B5D988D8AA
D8A8D8ADD8B3D8A8
D8A8D8B7D988D984D8A9
D8AAD985D983D986
##D983D8A7D8AA
D8B1D8B3D8A7D984D8A9
##D8B3D985D8A7D8A1
D8B9D985D8A7D986
D981D8B1D8B5D8A9
D8A7D984D8B4D985D8A7D984
D987D8A7D8AAD981
D8A7D984D8A7D983
D985D8B4D983D984D8A9
##D985D988D984
D988D983D8A7D984D8A9
##D984D982D98A
##D8B1D98AD984
D985D986D8B8D985D8A9
D985D987D985D8A9
##D988D98AD8AAD8B1
D8AAD8B9D984D985
D8A7D984D8AAD8AFD8A7D988D984
D8A7D984D8A7D8ABD986D98AD986
##D8B8D8A7D8B1
D8AAD8B5D984
D8B3D984D8B3D984D8A9
D982D8A7D8A6D984D8A7
##D8B6D8A8
D8A7D984D982D984D8A8
D985D8B1D8ADD984D8A9
D8B9D8B1D981
D98AD985D986
##D8A7D8B7D8A9
D8B3D8A8D8A8
D8A7D984D8AAD8B9D8A7D985D984
##D986D98AD8B9
D8B9D98AD8AF
D8A7D984D981D983
D8ADD8B1D8A8
D8A7D984D984D8B9
##D8A7D8A8D984D8A9
D986D988
D985D985D983D986
D8A7D984D8A3D8AED98AD8B1
D8A7D984D8A3D8A8
D8A7D984D985D8A4D8AAD985D8B1
D8A7D984D8AFD8B1D8A7D8B3D8A9
D8A7D984D8B4D985D8B3
D8B3D988D989
##D986D8AFD8B3
##D8AFD98AD8A7
D8A7D984D982D98AD8A7D985
D8A7D984D8B7D8A8D98AD8A9
D8A7D984D8AAD8A7D984D98A
D8A7D984D8B3D984D8B7D8A7D8AA
D8A7D984D8B9D8B5
##D8ADD988
D8B5D986D8A7D8B9D8A9
D8A7D984D985D984D981
D988D987D8B0D987
D8AFD988D8B1D98A
##D984D8A7D98AD98AD986
D984D8A7D981
##D988D8A7D986D98AD986
##D982D989
##656E
D985D8ADD8AF
D8A7D984D8A7D982D8AAD8B5D8A7D8AF
##D8A7D988D985D8A9
D8A5D986D987D8A7
D8AED985
##D8A7D8AFD985
##D988D986D987
D8A7D984D8ADD8B1D983D8A9
D981D983
D8A8D985D8B9
D8A7D984D8ACD985D987D988D8B1D98AD8A9
D98AD8B0D983D8B1
D8A8D8B9D8AFD985D8A7
##D98AD986D8A7D8AA
D98AD8BA
##D988D986D98AD988
D985D8A7D8B1
##D8A8D98AD8B6
D98AD988D985D8A7
D8A7D984D8A7D8B5
D8B5D984D8A7D8AD
D984D983D98A
D988D8A3D8B9
D8A7D984D8A3D8ACD986
D8AAD8B3D8ACD98AD984
##D984D985D8A7D8AA
##D8B5D98AD984
D8ACD8A7D986
##D8B4D8AF
D8A7D984D984D8A7D8B9D8A8D98AD986
D983D8A8D98AD8B1D8A7
D8AAD8ACD8A7D987
##D981D98AD982
D8A7D984D8A3D988D8B1D988D8A8D98A
D98AD8B5D984
##D8A7D8B2D985
##D8A8D98AD8A8
D8A7D8B3D8AAD987
D8A7D984D8A3D988D8B3D8B7
D8A7D984D8A5D8AF
D8A7D984D8ABD988D8B1D8A9
D8A7D984D987D8A7D8AAD981
D8B1D8AC
##D98AD8A8D8A9
##D8A8D982D989
D8A7D984D8A3D987D984D98A
D8A7D984D985D8ACD985D988D8B9D8A9
D8B3D8B9D98AD8AF
##D988D8B2D98AD8B9
D8A7D984D983D985
##D983D98AD986
D8A7D984D985D8ACD8A7D984
D984D985D8B3
D8A7D984D981D8B1D986D8B3D98A
D982D8B6D98AD8A9
D8A7D984D986D988D8B9
D8A7D984D8A5D8B3D8B1D8A7D8A6D98AD984D98A
D8A3D986D987D985
##D8B3D8A7D8AF
D8B3D98AD8A7D8B1D8A9
##D986D8AFD982
##D8B2D8A7D8A1
D988D8ADD8AFD8A9
D8A8D8AAD8AD
D985D8A4D8B3D8B3D8A9
D8A7D984D8ACD988
##D8AAD8BA
D8A7D984D8AAD8AFD8B1D98AD8A8
D8A7D984D984D8A8D986D8A7D986D98A
##D8A7D8A8D8B1
D988D8A7D8AC
D8B3D8ADD982
D8A3D987D8AFD8A7D981
##D988D984D8AF
D983D8A7D985
D984D984D8A7D986
3430
##D8A7D8ADD8A7D8AA
##D985D8AB
D8B9D8B6D988
##D8A7D8A6D8B2
D984D985D8A7D8B0D8A7
D986D8A8
D8ACD98AD8AFD8A7
##D8B5D8AD
D98AD987
D8AED98AD8B1
D985D986D8A7D981
D982D8B5D8B5
##D985D985
##D982D988D982
D8A7D984D985D983D8A7D986
##D8A7D8B6D8A9
D8B5D8ADD98AD8AD
D986D8B7
D8A7D984D985D982D8A8D984D8A9
32303134
D8A7D984D986D8B4
D8AAD986D8AA
##D8A7D8B7D981
##D983D98AD8B1
##D8A7D988D98AD8A9
##D8AAD98AD8A8
##D8A7D982D8A8D8A9
D984D8AFD98AD986D8A7
D8ADD985D8A7D98AD8A9
D8A7D984D8A7D8B3D8AAD8ABD985D8A7D8B1
D988D8A7D984D985D8B1
D8A8D986D8AA
D8A8D8AFD8A1
D984D8B0D8A7
D8A7D984D8B7D8B9D8A7D985
D988D8B0D983D8B1
##D8A7D8B1D8A8D8A9
D8A8D8ADD98AD8AB
D8A7D984D986D98A
D8A7D984D8B5D988D8B1D8A9
D98AD988D8B3D981
D985D986D8AA
##D985D8AAD8A7D8B2
##D8ABD985D8B1
D988D8A5D8B0D8A7
D8ACD985D8A7D984
##D988D986D8A7D8AA
##D986D8AFD98AD8A9
D8A7D984D8BAD8B1D8A8D98AD8A9
D8A7D984D8B4D8A8
D8A7D984D8A7D8B3D8AAD982
##D8B9D8AFD8AFD8A9
##D987D8A7D8AA
D98AD8A4D8AFD98A
D8A7D984D8AED98AD8A7D8B1D8A7D8AA
##D982D981
D985D8A4D8AAD985D8B1
D8A7D984D8AFD8B9D985
##D984D981D8B2D98A
D8A7D984D8A8D986D983
D981D984
##D8B7D8AD
D8A7D984D8ADD8AFD988D8AF
D984D8B6
D988D8A7D984D8B2
D8A8D985D8AF
##D8B1D8A7D8A6D98AD984D98AD8A9
##D981D8A7D981
D8A7D984D8B9D984D98AD8A7
##D8A7D98AD984
D8AED8B5D988D8B5D8A7
D982D8B7
##D983D8B1D8A7
D983D984D8A7D985
D8A7D984D8A3D8B3D8A7D8B3D98AD8A9
D8A7D984D8B3D8B9D8B1
D8A7D984D987D8AFD981
D8B9D982D8A8
D8A7D984D8A3D98AD8A7D985
##D8A8D988D984
##D986D981
##D8B1D988D8AD
D984D983D986D987
D8A7D984D8A7D982D8AAD8B5D8A7D8AFD98A
D8AAD8B3D8A7D8B9D8AF
##D8B9D8AFD98AD986
##D8A7D981D982D8A9
D8AFD8A7D8B1
D8A5D8ACD8B1D8A7D8A1
D8AAD8B3D985
D8A7D984D985D8B3D8AAD988D989
D985D8A4D983D8AFD8A7
##6963
##6573
##D8B1D8A7D8A8
D983D8A7D8B1
D8A8D985D8AD
D8B2D98AD8A7D8B1D8A9
32303135
##D8A7D8ADD98A
##D981D982
##D8A7D988D8B1
D984D98AD8A8D98AD8A7
D8A7D984D8AAD8ACD8A7D8B1D8A9
D8A7D984D985D8B6
##D8A7D982D981
D8A7D984D8ADD983D988D985D98AD8A9
D988D8A7D984D8AAD8AD
D988D984D8AF
D988D8B1D8A7D8A1
D8A7D984D981D988D8B2
D98AD8B3D8A7D8B9D8AF
D8AAD982D988D984
D8ADD8B3D98AD986
D8AFD982D98AD982D8A9
D985D8A7D986
D98AD986D8A7D98AD8B1
D8A3D8A8D8B1D8B2
D981D8B1D8B6
D988D985D8B4
D8A7D988D984
D8A7D984D8AAD986D985D98AD8A9
D8AED984D982
D985D986D8AD
##D984D8A7D984D8A9
##D8AAD987D98A
D8A3D988D984D8A7
##D8B5D8AFD8A7D8B1
D8A7D984D8A8D98AD8A7D986D8A7D8AA
D8A8D984D8A7
D985D8B9D987D8A7
D8B4D8A7D8B1D983
D8A7D984D8A3D985D986D98AD8A9
D8A7D984D8B9D8B2D98AD8B2
D985D988D8A7D8B7
##D8B7D988D8B1
D8A7D984D8ACD8A8
D8ADD8A7D984D8A7D8AA
D8A7D984D8B5D8BAD98AD8B1D8A9
D8A7D984D8AFD988D8B1D8A9
D985D8A7D8B0D8A7
D8A7D984D8B1D98AD8A7D8B6D98AD8A9
D8ACD98AD8AF
D8A8D988D8A7D8B3
D8A7D984D985D8A4D8B3D8B3D8A7D8AA
D8B7D8B1D982
##D985D8A7D984D983
D8A7D984D988D8A7D8AD
D8A7D984D983D8A8D98AD8B1D8A9
##D8AAD985D984
D8A7D984D8ACD985D8B9D98AD8A9
D986D988D981
D981D8A5D986D987
D8A8D8B7D8B1D98AD982D8A9
D8B9D984D8A7D982D8A9
##D8AED981D8A7D8B6
D8A3D983D8AAD988D8A8D8B1
D8A7D984D985D8A7D8AFD8A9
D98AD8B3D8AAD8B7D98AD8B9
D8A7D984D8AED8AFD985D8A9
D981D988D8B1
D985D8ADD8A7D981D8B8
D8B4D8A8D8A7D8A8
##D8B8D98A
D981D8A7D984D8
D982D8B5D8A9
D8A7D984D983D8A8D8B1D989
D8A7D984D8AAD8ADD982D98AD982
D8A7D984D985D8ADD983D985D8A9
D8A7D984D985D986D8AAD8ACD8A7D8AA
D8A7D984D981D986
D8A7D984D8B3D8A7D8AF
3236
D8B3D8A7D986
D8A7D984D8B3D988D8AFD8A7D986
D985D986D8B9
D985D8A4D8AED8B1D8A7
##D985D8B1D8A9
D988D8AAD8AC
D8A5D8A8D8B1D8A7D987D98AD985
D8A7D984D98AD8A7D8A8
D8A7D984D986D988D8A7D8A8
D8ACD98AD8AFD8A9
D8A7D984D8B1D8B3D985D98A
D988D8A7D984D985D8AD
D8A3D8B7
D985D8ADD8A7D988D984D8A9
D8A2D984D8A7D981
D988D8B1D8AF
D8AAD983D986
D8A7D984D981D986D98AD8A9
D8BAD8A7D984D8A8
##D8AAD985D8A8D8B1
D8A7D984D8A8D8B7D988D984D8A9
D985D988D8B9D8AF
D8A7D984D8B1D8ACD8A7D984
D981D988D8B2
D8A7D984D985D8ADD984D98A
D8A7D984D8B1D8B3D985D98AD8A9
D8ADD985D984
##D984D988D8A7D986
D8ACD8A8
D8AAD988D986D8B3
##D982D98AD982D98AD8A9
##D981D98AD8AF
##D985D8A7D985
D988D987D986D8A7D983
D8A7D984D985D8B3D8AAD8AED8AFD985
D8A7D984D8B9D985D8A7D984
D8AED8B7D8A9
D8A7D984D988D8B3
D8A5D986D8B4D8A7D8A1
##D8AED8B1D8A7D8AC
D8AED984D8A7D984D987D8A7
##D986D8AFD98A
D8A8D8A7D984D985D986
D8A8D8AB
##D988D984D98AD988
D8A7D985D8A7D985
D98AD988D986D98AD988
D8A7D984D8A3D8B2D985D8A9
D8AED984
##D981D988
##D8A7D8B1D98AD8B1
##D985D98AD8B2D8A9
D8AAD8B8D987D8B1
D8A5D8AE
D8A7D984D8ADD8A7D984D8A9
##D8B2D8B9
D8B7D8B1D8AD
##D982D98AD98AD985
D8A7D984D8ACD8A7D8B1D98A
D8A7D984D8B5D984D8A7D8A9
D986D982D8A7D8B7
##D988D8A7D985D984
D8AAD988D981D8B1
32303133
D8A3D8B3D8A8D988D8B9
D8B3D8B9D8AF
D8B3D8A8D8AAD985D8A8D8B1
D98AD8ADD985D984
D8A7D984D983D8AA
##D8B0D8A7D8B1
3237
3238
##D985D8A7D98AD8A9
D981D983D8B1D8A9
D986D8B3D8AA
D8B4D98AD8A6D8A7
##D8B7D8B1D8A7D981
##D8B9D8B1D8A7D8B6
##D8A7D8A8D8A7
D8B4D8B1D982
D8AAD981D8A7D8B5D98AD984
D8A7D984D8A3D8BA
D8BAD8B1D981D8A9
D8B1D8B3D985D98A
D8A7D984D8A5D8B3D984D8A7D985D98A
D984D984D8ADD8B5D988D984
##D8B7D8A7D984
D8A7D984D8B3D8A8D8A8
D985D8AAD8B9
D8A7D984D8A3D985D98AD8B1D983D98AD8A9
D982D988D984D987
D8A8D8B0
D98AD988D985D98AD8A7
D8B8D987D988D8B1
D8AAD8B4D983D98AD984
D8A3D8AED8B0
##D8AAD8AFD989
D8A7D984D8ACD987D8A7D8AA
##D8A8D98AD987
##D981D98AD987
##D8A7D982D8B4
D8A5D8B9D984D8A7D986
D8A7D984D8ACD8AF
##D988D8A7D986D8A7D8AA
D8A7D984D8A5D986D8ACD984D98A
D8AAD8AFD8B1D98AD8A8
##D8A3D984D8A9
D8B3D988D8B1D98AD8A9
D8A3D8A8D8AF
D8A7D984D986D8AA
D8A7D984D8A7D986D8AAD8B1D986D8AA
D981D8B1D986D8B3D8A7
D8AFD8AED988D984
##D986D98AD8A7D8AA
##D8B1D98AD8AC
D8AAD8B9D8B2D98AD8B2
D8A7D984D8ABD8A7D984D8ABD8A9
D8B1D8A4D98AD8A9
D986D8ACD8A7D8AD
D8A7D984D8B7D984D8A8
##D986D983
D8A7D984D8B9D8B3D983D8B1D98A
##D8AAD8B1D8B6
D8AAD985D988
D8A7D984D98AD8AF
##D8AAD8ACD8A7D988D8B2
##D8B3D8A7D8B1D8A9
D984D984D985D8B3
D988D8A7D8B6D8AD
##D982D8A7D8A6D982
D8A7D984D8A5D8B4
D985D8A8D8A7D8B4D8B1
##D8B9D98AD985
D988D98AD8B4
D985D986D8AAD8AED8A8
D8ADD8B2
##D8AFD8A7D8A1
##D986D8B7D986
##D988D982D98AD8B9
##D8B8D8A7D987
D985D8AAD985
D8B3D8AAD983D988D986
D985D8B9D8B1D981D8A9
##D8AAD8B5D984
D8B9D986D988D8A7D986
##D8ABD98A
D8A7D984D8AAD8A7D8A8D8B9D8A9
D981D8B6D984D8A7
D986D8B8D8B1D8A7
D8B1D983
D988D8A8D8A7D984
D8AAD982D8B1D98AD8A8D8A7
D8A7D984D982D8B6D8A7D8A1
D984D8A7D8B9
D8A8D98AD986D987D985
##D8ACD984D8A9
D8A7D984D982D8A7D8AFD985D8A9
D985D987D985
D8B4D8A7D987D8AF
##D8AAD8B1D983D8A9
##D988D8A7D8ACD987
D8AAD986D8B8D98AD981
D984D8A3D986D987D8A7
D988D8AED8A7D8B5D8A9
D988D8A7D984D8A2
D8A8D988D8A7D8B3D8B7D8A9
##D985D988D8A7
D8AAD8B3D8A8D8A8
D8A7D984D8A7D8AAD8B5D8A7D984
D8A8D8AFD984D8A7
D8A7D984D982D8B6D98AD8A9
D8A7D984D8AAD8A7D984D98AD8A9
##D985D986D8AA
##D8B1D8B5
D983D98AD984
##D984D98AD983
D984D984D8B9D985D984
D8A8D987D985
D8A7D984D8AAD988D986
D8A7D984D8A3D8B2
D8A7D984D8B9D98AD986
##D982D984D8A9
D8A7D984D8B9D8B1D8A7D982D98A
D8AFD8A7D8B9D8B4
##616C
D981D8AD
##D8A3D98A
D8A7D984D8B3D98AD986
##D8A6D984D8A9
D8B9D8A8D8A7D8B1D8A9
D985D982D8B1
##D98AD985D8A7D986
D988D983D98AD981
##D8A7D981D8A7D8AA
##D988D8B2D8A7D8B1D8A9
D8A7D984D8ACD8B2D8A1
##D8B7D981D989
D8B9D8A8D8AFD8A7D984D8B9
D8AAD8B9D984D98AD985
D8A7D984D986D985D988
D98AD8B2D98AD8AF
D98AD8B3D8AAD8AED8AFD985
D985D8A7D8AA
D988D98AD8B3D8AA
D8A3D8A8D986D8A7D8A1
D8A7D986D8AAD982
D8ADD8AFD988D8AF
D8A3D8B5D8A8D8ADD8AA
D8B5D8AFD8B1
D8B9D986D8A7D8B5D8B1
D8A3D8B7D984D982
D8A7D984D8B3D98AD8A7D8B1D8A9
##D982D8B7D8A7D8B9
D8B7D981
##D8BAD8A9
##D984D8AE
D8A7D984D8ABD982D8A7D981D8A9
D8A7D984D985D988D8A7D982D8B9
D8A3D984D8A7
D8A7D984D8B9D8B6
##D8B1D8B2
D8A7D984D8A3D8AC
D8A7D984D8B7D8A8D98AD8B9D98AD8A9
D8A7D981D8AA
##D985D988D8B9D8A7D8AA
D8AAD982D8AF
D8A7D984D8AFD8B3D8AAD988D8B1
D8A7D984D8B4D8B1D982D98AD8A9
D8A7D984D984D8A8D986D8A7D986D98AD8A9
D8A8D8A7D984D8B0
D8B7D986
D8A8D8AAD8B9
D983D8A7D985D984D8A9
D988D986D8ADD986
##D8AAD984D8A7D981
D8A7D984D8A8D986D8A7D8A1
##D98AD8AFD8A7D986
D8AFD98AD8B3
##D8B2D8A7D8A8
D982D988D98AD8A9
D8A7D981D984D8A7D985
D988D8ACD8AF
D8B5D8BAD98AD8B1
##D988D987D8A7
D8A7D984D8ADD982D98AD982D8A9
D988D8A7D8B1
D988D8A7D8A8
D8ACD985D98AD8B9D8A7
D8A7D984D8B9D8B1D8A7D982D98AD8A9
D985D8ADD8B7D8A9
D8B9D8A7D8AFD8A9
D8A7D984D8AFD982D98AD982D8A9
D8A7D984D8B7D8B1D98AD982D8A9
D98AD8B9D98AD8B4
D985D8ACD8B1D8AF
D8A7D984D8B4D8B1D98AD981
D8B2D985D986
D985D8B4D8A7D983D984
D8A7D984D985D8ADD8A7D981D8B8D8A9
##D8B5D98AD8AF
D983D984D98AD8A9
##D988D8B1D983
D8A7D984D8A8D8A7D8ADD8AB
D8A3D8ACD987D8B2D8A9
##D8AED985
##D988D8B9D98AD8A9
D8A8D8AFD8B1
D8AED985D8B3
D985D8B3D984D8B3D984
D8A7D986D8AAD8B4D8A7D8B1
D8A7D984D8B2D985D986
##D986D8A7D987
D8A7D984D8A5D8B9D984D8A7D986
##D8B2D8A7D984D8A9
D8A3D8B1D8AF
##D8B9D98AD986
D8B1D988D8AD
D8B5D8A7D8B1
##D8A8D98AD8AA
##D8AAD8A8D8B7
##D981D8A7
D8B3D987
D988D984D8B0
##D8B9D8A7D8A1
##D8A7D8B5D984D8A9
D988D8AAD8A7D8A8D8B9
D8ADD8A7D988D984
D8ACD987D988D8AF
D8A8D8A7D984D8BA
D98AD986D8A8
D8A7D984D981D8B1D986D8B3D98AD8A9
D8A7D984D985D986D8B4
##D982D8B1D98AD8B1
D985D8AFD8B1D98AD8AF
D8B3D983
D8A8D8B9D986
D8A7D984D8ACD8B1
##D8A6D98A
D986D8B9D985
##D8A7D982D8AF
D8A7D984D8AAD8B1D983D98AD8A9
D985D982D8A7D8B1D986D8A9
D8A7D8B3D8AAD985D8B1D8A7D8B1
D985D985D986
D8A3D981D8B1D98AD982D98AD8A7
D8A7D984D8A5D986D8AAD8A7D8AC
D988D8A7D984D987
D8A7D985D8B3
D8AAD8ACD8B1D8A8D8A9
##D984D985D98A
D8A7D984D8A5D8ACD8B1D8A7D8A1D8A7D8AA
D8A8D8A7D984D981D8B9D984
##D8B1D988D8A9
D8B4D8AED8B5D98AD8A9
D8ACD98A
D8A7D984D8A8D8B1D984D985D8A7D986
D8A7D984D8B9D984D985D98AD8A9
D982D985
D8A5D981
##D8AAD988D8A7D8B5D984
##D8A7D8A8D98AD986
D8A7D984D986D982D8AF
D98AD8B9D988D8AF
D8A7D8AAD8ADD8A7D8AF
##D8A7D8ACD8B9D8A9
##D986D8A7D8A6D98A
D8B3D8A8D982
D8B5D8ADD8A9
D8B9D8B4D8B1D8A9
D985D8ACD8AAD985D8B9
D8A7D984D8A3D982D984
D8A3D8AFD8A7D8A1
D8A7D984D982D8B7
D985D8B7D8A7D984D8A8
##D8A7D8AFD8A6
D8A7D984D984D8B9D8A8D8A9
32303131
D984D8AFD98AD987
D8A7D984D8ACD988D984D8A9
D8A7D984D985D8B4D983D984D8A9
D988D8B5D988D984
D984D985D8AD
##D8BAD8A8D8A9
##D8A8D984D988D985
D8A7D984D985D8AAD986
##D8AED98AD8B5
D986D8B4D8A7D8B7
D988D8B1D8A8
D8A7D8A8D988
D985D983D8AA
D8A7D984D8ABD986D8A7D8A6D98AD8A9
D8AFD984D98AD984
D988D98AD8AAD985
D8A8D8AAD982
D988D8AAD8AF
D983D981
D8A7D984D8B7D8B1D981
D8A7D984D8A3D8A8D98AD8B6
##D8A6D98AD8A9
D8A7D984D8ADD8AC
D8B4D8A7D8A1
##D984D98AD985D98A
D8B9D8A8D8AFD8A7D984D8B9D8B2D98AD8B2
D8A7D984D8AAD8A8
D8A7D984D8B3D986D988D8A7D8AA
##D8AFD982
D8A7D984D985D982D8AF
##D8AFD8A7D981
D8A7D984D8AFD8AED988D984
##D8B0D986
##D8AAD98AD8AD
D983D988
D8A7D984D985D8AAD985
##D8B2D98AD984
D8A7D983D8AAD8B4
D8AAD8AB
D8A7D984D984D8A7D8B2D985D8A9
D8A7D984D986D8A7D8A6D8A8
##D985D98AD8A7D8AA
D8ADD981
##D8AAD8B1D8A7D985
D8A7D984D8A7D8B1D8AF
##D8AAD981D8A7D8AFD8A9
D8A7D984D985D8A4D8B3D8B3D8A9
D8A7D984D988D8B3D8B7
##D8A7D98AD98AD8B1
D8AAD981D8B3
D982D988D984
D8A7D984D8ADD8A7D984D98AD8A9
D8AAD8B5D8B1D98AD8AD
D8A7D984D982D8AFD98AD985D8A9
##D8AAD8A8D8A9
D985D987D985D8A7
D8A8D8A7D984D8B6
D988D8A7D983
D988D982D981
D984D8AAD8ADD982D98AD982
D988D8A3D98A
##D8B1D8A7D8B6
D988D8AAD8B1
D8A7D984D8ADD988D8A7D8B1
D8A7D984D988D8ACD987
##3530
D988D8A3D8B3
D8A7D984D8A8D8B4D8B1D98AD8A9
D981D8B1D8B5
D8A7D984D8A3D985D98AD8B1D983D98A
D8A7D984D8AAD982D8B1D98AD8B1
D988D984D8A7D98AD8A9
##D984D8A8D98A
##D8A7D8B6D98AD8B9
D8AED8B7D8B1
D8A7D984D985D8AFD8B1D8B3D8A9
D8B3D983D8A7D986
D8A7D984D987D988D8A7D8A1
D988D8A8D8AF
D985D8A7D98AD988
D8A7D984D8A8D8B1D8A7D985D8AC
D8A7D984D8A3D8B1D8AFD986
D8ADD982D98AD982D8A9
D985D8ABD984D8A7
D8A7D984D986D982D984
##D988D984D98AD8A9
D8A5D8AD
D985D8B4D8A7D987D8AFD8A9
##D988D982D8A7D8AA
D984D984D988
D8A7D984D8AFD988
D8A7D984D8B9D988D8AFD8A9
D8A7D984D982D988D989
D985D98AD984
D8A7D984D8B9D984D8A7D982D8A9
##D98AD8B3D8A9
D988D8A7D984D8A7
D8AAD8B4D8BAD98AD984
D8A8D8BAD8AFD8A7D8AF
D8A7D984D8A5D8B5D8A7D8A8D8A9
D8B3D985D988
##D988D8AAD98A
D8AAD985D8B1
##726F
D8A7D984D8ADD8A7D984
D8A7D984D8AFD987
D986D988D981D985D8A8D8B1
##D8A7D8A8D8AA
D8A7D984D987D984D8A7D984
D8A3D8B3D8A8D8A7D8A8
D8A3D8B2D985D8A9
D984D984D8B1
##D8B8D985D8A7D8AA
D985D8B9D8B1D8B6
##D988D98AD8B6
32303132
D985D8AFD8B1D8A8
3630
D8B7D8B1D981
D988D8A7D8B3D8AA
D8A7D984D8A8D8ADD8B1D98AD986
##D984D981D8AA
##D8AFD988D986
##D987D988D985
D988D984D986
D986D985
D8A7D984D8AFD986D98AD8A7
##D8B7D8A7D8AA
D98AD988D984D98AD988
D8A7D984D985D8B5D8B1
##D984D988D984
##D8ACD8AD
D8A7D984D8ADD985D984
D988D982D8B9
D8A7D984D8A5D984D983D8AAD8B1D988D986D98AD8A9
##D8B3D98AD985
##D8B1D8B7D8A7D986
D8B2D98AD8AA
D8A7D984D988D8AC
D8A7D984D981D8B1D982
D8A7D984D8A5D985D8A7D985
D8ACD985D987
D8A7D984D982D8A7D8AFD985
D8A7D8ADD8AAD98A
D8A7D984D982D988D984
##D8A7D8B7D98A
D8A8D8A3D8B3
##D988D98AD982
##D8A7D8A6D8B1D98A
##D8B3D98AD8B3
D988D8A7D8B4D986D8B7D986
##D8A7D987D988
D988D8A7D984D8AAD8B9D984D98AD985
D8ADD985D984D8A9
D8B9D8B1D8A8D98A
D988D8A8D8AD
D8AAD988D8ACD8AF
D8A7D984D8A5D8AC
##D8B7D98AD8B7
D8ADD981D8B8
##D8AFD98AD982D8A9
D8A9
D8A8D98AD986D987D8A7
D8AAD8B5D8B1D98AD8ADD8A7D8AA
D8A7D984D8B2D988D8AC
##D8AFD8B1D8A7D8AA
D8A7D984D8B1D8A7D8A8D8B9
##D8AFD98AD987
D98AD8B8D987D8B1
##D8A7D8AAD983
D8A3D8ADD98A
D985D983D8A7D981D8ADD8A9
D8B3D8A7D8A8D982
D988D984D987
D981D984D985
##D988D8B1D987D8A7
D8B9D8A7D985D8A9
##D8A7D985D987
D8A7D984D8B4D8B9D8A8D98AD8A9
D8A5D98A
D8B1D8A7D8A6D8B9
D8A7D984D8B3D981D8B1
D8A7D984D8B9D8B1D8B6
D8A3D986D8ADD8A7D8A1
D985D8B9D8A7
D988D98AD982
##D985D989
##D8B4D984D988D986D8A9
D8AED985D8B3D8A9
##D985D8AAD984D983
D8A8D985D8B1
D8A7D984D8AAD982D984D98A
313938
D8B9D8B1D8A8
##D8B1D8A7D8A6D985
##D986D8A7D981
D8A7D984D8B9D985D984D8A7D8AA
D985D8B3D8A7D8B9D8AF
D8A7D984D981D8B9
D8A7D984D8B3D8AC
D8A7D984D8A3D8ACD987D8B2D8A9
##D8ACD8AAD985D8B9
D8A7D984D985D8B1D8A7D987
D8A7D984D985D8AFD8B1D8A8
D8A7D984D985D987D985
D985D8B4D8A7D8B1D983D8A9
D8A7D984D988D8B2D98AD8B1
D984D984D8AAD8AD
D98AD985D8ABD984
D8A7D984D985D8B3D984D8ADD8A9
D8A7D984D8A5D8B3D8AA
##D8A7D8B2D986
D8A7D984D8ADD8AFD98AD8ABD8A9
D8A7D984D8B1D983
D988D8A3D8AE
D8A7D984D985D8AFD8A7D8B1D8B3
D8A8D8B5D988D8B1D8A9
D8A3D8B1D8A8D8B9D8A9
##D988D8A7D8B7
D8A7D984D985D986D8A7D981
D8A7D8ADD985D8AF
D988D8AAD8B5
##D8B2D986
3239
D8A8D8AAD986
##D8A7D8A6D987D985
D8ACD985D8B9D98AD8A9
D8AED8B1D8AC
D8A7D984D985D8B9D8A7D8B1D8B6D8A9
D8A7D984D8AAD8B1D983D98A
D8A7D984D8A3D8ADD985D8B1
##D982D8B1D8A9
D988D8A7D982D8B9
##D981D989
##D983D988D985D8A9
D8A7D984D8A3D8ADD98A
D8A7D984D8A3D8B3D8AF
D8B3D985D8B9
D8A7D984D985D988D8ACD988D8AFD8A9
D8A7D984D8AAD987
D8A7D984D982D98AD8A7D8AFD8A9
##D8A7D8AFD8A7
D8A7D984D986D8AAD8A7D8A6D8AC
##D98AD985D98AD8A9
D8AFD985D8B4D982
D8AAD8ACD8AF
##D982D988D8B7
D8A8D8A7D984D8B1
D8A7D986D981
D8B9D987D8AF
D8A7D8B3D8AAD8AE
D8A7D984D8A2D8AED8B1D98AD986
##D8A7D8B1D989
D98AD8ADD8AAD988D98A
##D8ACD98AD8B1
D8A7D984D985D983D8AAD8A8
D8A7D984D986D8B2
D8A8D986D983
D8A7D984D8ADD8A7D984D8A7D8AA
##D981D8B0
D8A7D984D8A5D986D8B3D8A7D986D98AD8A9
D8BAD8B1D8A8
D8A7D984D8B5D981D8ADD8A9
D8A7D984D982D8A7D8A6D985D8A9
D8A7D984D985D8AFD8B1
D985D8A8D8A7D8B1D98AD8A7D8AA
D8A7D984D8B3D98AD8A7D8B3D8A9
D8A7D984D8AAD8B9D8AFD98AD986
D8A7D984D982D988D8A9
D8A7D984D8B9D984D985D8A7D8A1
##D8AAD8AED8B5D8B5
D8AFD988
D8A7D985D8B1D8A3D8A9
D98AD8ADD8B5D984
D988D98AD8AA
##D8B9D988D986
##D8BAD984D8A7D982
D8AAD8BAD98AD8B1
##D983D988D986D8A7D8AA
##D987D8A7D8B1
D8AAD8ADD8AAD988D98A
D984D8AFD98AD987D8A7
D988D8A3D8AD
D988D8ACD8A7D8A1
D8AFD8AED984
D8A7D984D8B6D8BAD8B7
D8A7D984D8ABD8A7D986
D985D8AAD988
##D8B1D8B3D8A7D984
##D984D8A7D8ADD8B8
D8B3D98AD8A7D8B3D98AD8A9
D8A7D984D985D986D8B8D985D8A9
D8A3D8ABD8B1
D8AFD987
D983D984D987D8A7
D981D985D8A7
##D984D8A6
##D8B7D988D98AD8B1
D8B3D8A7D985
D8A7D984D985D8ABD8A7D984
D8A7D985D8A7
D981D8A8D8B1
##D8A7D8B1D982D8A9
D985D984D8A7D98AD98AD986
##D8B9D985D984
D8A7D984D986D988D985
D985D8ACD8A7D986D8A7
D988D8A7D98A
D8ADD8A7D8ACD8A9
D8B9D8B1D8A8D98AD8A9
D8A8D8B3D8B1D8B9D8A9
D986D988D8B1
D988D981D8A7D8A9
D988D8A7D984D985D8B4
D8A7D984D988D8ADD98AD8AF
##D8A7D8A6D8B1D8A7D8AA
D985D8B1D8A7D8AA
D8B3D8A7D8A8
D8A7D984D98AD987
D8AAD8A3D8AAD98A
D8A7D984D985D988D8A7D8B7D986
##D8AED8B1D8A9
##D988D8A7D8B1D8B9
D8A7D984D986D8A8D8A7D8AA
D8ADD985D8AF
D8A7D984D988D984
##D985D8B1D8A7D8A1
D8AAD8ACD985D8B9
D8A3D8B3D8AA
D8A7D984D8BAD8B0D8A7D8A6D98AD8A9
D8A7D984D8A5D984D983D8AAD8B1D988D986D98A
##D984D8AB
##D984D8A7D98AD8A7
##D8A7D987D98A
D988D985D8B3D8AA
##D8AAD8A7D8A1
##D8B1D988D98AD8AF
D987D986
D8AAD8ADD988D984
D985D986D8B2D984
D8B2D98A
D985D8AAD8AC
D8A7D984D8B5D8B9
D8AAD8B1D8AC
##D8AAD8B1D8A7D981
D8A5D8B5D8A7D8A8D8A9
##D8A7D8A8D98AD8B9
##D8B3D8A8D982
##D984D8B2D985
##D8A7D983D8A9
D8A8D8B1D98AD8B7
##D8A2D8AA
##6974
D8A7D984D8AAD986D8B8D98AD985
D984D8ACD985D98AD8B9
D984D98AD986
##D8AAD985D986D989
D8A7D984D8B7D8A8D98AD8B9D98A
D8A3D985D8B1D98AD983D8A7
D988D8A5D986D985D8A7
D8A7D984D8B7D8A7D984D8A8
D8B1D982
D8A8D984D8A7D8AF
D8A7D8AAD8AED8A7D8B0
D985D985D8A7D8B1D8B3D8A9
D8A7D984D985D985D983D986
D8A7D984D985D8AAD8B9D984D982D8A9
D8B4D8B1D983
##D8A8D988D8B9
##D984D8A7D985D8A7D8AA
D8A7D984D8B9D984D985D98A
D985D986D8B2
D8A3D8AA
D8A7D984D8A5D98AD8B1D8A7D986D98A
##D8B0D8A7D983
D8AFD98AD8B3D985D8A8D8B1
##D8ADD987
##D988D986D987D8A7
D8A8D98AD8B1D988D8AA
##D8B3D983
##D8A8D8B9D8A7
D8A7D984D985D8B4D8A7D8B1D98AD8B9
D982D98AD8A7D8AFD8A9
##D8A7D8AED8B1
D981D8B1D982
D8A3D986D981D8B3
##D8B4D98AD8A7D8A1
##D985D984D98AD8A9
D8B6D8A8D8B7
D8A7D984D985D8ADD8AF
D8B9D8B7
##D8A8D988
D985D8B5D8B7D981D989
##D8A7D8ABD8A9
D8A3D986D986D8A7
D988D8A7D984D988
D8A7D984D985D8B5D8AFD8B1
D8A7D984D8A5D8B3D8B1D8A7D8A6D98AD984D98AD8A9
##D8A7D8A6D98AD8A7
D8AAD8A8D8AFD8A3
##D8A7D8B2D8A7D8AA
D8A7D984D8A3D8B9D984D989
##D8AAD8A7D986
D8A7D984D8A3D8B7
D982D98AD985
D8AAD8B3D8AAD8B7D98AD8B9
##D8A7D988D8B6D8A7D8AA
D984D8AAD8AC
D8A7D984D985D8ADD8A7D981D8B8
##D984D982D8A8
##D8A7D8AFD8AAD987
D8A7D984D985D987D986D8AFD8B3
D981D8A8D8B1D8A7D98AD8B1
D8A7D984D8A8D98AD8A6D8A9
##D988D98AD987
D8A7D984D981D983D8B1
D98AD8B2D8A7D984
D8B2D8B1
##D8B8D981D98AD986
##D8A7D8A6D986
##D984D987D8A7
D8B7D988D984
D984D8AFD98AD983
##D8AAD8B1D98A
##D8AAD98AD8A7D8AA
D8A7D984D8A7D8B3D8AAD8B9
D985D8A7D8AFD8A9
D984D8AAD8B5
D982D8AA
D8A7D984D8A3D8B3D8AAD8A7D8B0
D8ACD8A7D985
##D982D8A7D8B0
D988D8A7D984D8B3D98A
D8A7D8AED8B1
D8A7D984D8B2D985D8A7D984D983
##D8A7D983D8A7D8AA
D8AAD8AFD8AED984
##D8A7D982D8B4D8A9
##D983D8AAD8B1
D98AD8B1D989
D8ADD8B6D8B1
D985D8AAD981
D8ADD8AFD988D8AB
D98AD8B9D984D985
D8A7D984D981D8B5D984
D984D984D985D8AD
D8AAD985D8ABD984
D8A8D985D8B3
D8B3D8A3
D8A7D984D8ACD8B2D98AD8B1D8A9
D8A7D984D983D984
D8A3D8AFD989
##D8AED8AAD8A7D8B1
D8A7D8AED8B1D989
D8B3D984D985D8A7D986
D8A7D984D8B5D98AD981
D8A7D984D983D984D8A7D985
##D98AD8AAD987
##7265
353030
D8A7D984D8A8D8AFD8A7D98AD8A9
D8A7D984D8AED98AD8B1
##D8B6D989
D984D984D985D8B3D8AA
D981D8A5D8B0D8A7
##D8AFD8AFD8A7
D8A7D984D8A3D8AED8A8D8A7D8B1
##D987D98AD8B2
D8A7D984D8ACD988D8AFD8A9
D8AAD985D986
##D8A4D98AD8A9
##D981D8A7D8A1D8A9
##D8B5D8A8
D8A7D984D8A3D8B3D8B9D8A7D8B1
D8A7D984D984D988D8A7D8A1
D8A7D984D8B9D982D984
##D8A7D8AFD986
D988D8A7D984D8AAD8AC
D8A7D984D8B5D988D8AA
D8B1D8A7D8A6D8B9D8A9
D8AAD8ACD8A7D988D8B2
##D8B0D981
D98AD986D8A8D8BAD98A
D8B5D986D8AFD988D982
D8A8D8A7D983
D8ABD8A7D986D98AD8A9
D8AAD988D982D981
D982D8A7D8AFD8B1
D8A5D8ACD8B1D8A7D8A1D8A7D8AA
D8BAD8B1
##D987D8A7D985
D988D8A8D8B1
D983D984D987
D8ADD8B6D988D8B1
D8B9D8A7D8AF
##D984D8A3
D8A7D984D981D8B6
D8AFD8A7D8AE
D8A7D984D8B9D985D984D8A7D8A1
D8A7D984D8A3D8B3D987D985
D8A7D984D8AFD8B1D8A7D8B3D8A7D8AA
D8A7D984D985D8A7D984D98A
D986D8B7D8A7D982
D8A3D981D8B1D8A7D8AF
D8A7D984D8B5D986D8A7D8B9D98AD8A9
D988D8A7D8B3D8B9D8A9
D8A7D984D8A3D985D8A9
##D986D98AD98AD986
D988D8A3D986D8A7
D8A8D8B1D8B4D984D988D986D8A9
D8A7D984D988D8B2D986
D8AAD988D8B2D98AD8B9
D8A7D984D981D98AD984D985
D8B4D8B1D8AD
D8A7D984D8B9D986D981
##D8A7D8B3D8AAD98A
D985D984D8AD
D8ACD8A7D8A1D8AA
##D8B9D987
D988D985D986D987D8A7
D8A8D8A3D986D987D8A7
D981D8B5D984
D8A7D986D8B7D984D8A7D982
D984D8AFD98AD987D985
D985D8B9D98AD986D8A9
D8B3D8A8D8AD
D8A7D984D8ADD981D8A7D8B8
##D8ACD985D8A9
D8A7D984D985D8B1D983D8B2D98A
D8A3D8ADD8AFD8AB
D8A7D984D8B1D98AD8A7D8B6D98A
D985D8AFD8B1D8B3D8A9
D981D8B3
D8B9D988D8AFD8A9
D988D8A7D984D985D8A4
D8A7D984D8ADD8B6
D8A7D984D8B1D8A6D98AD8B3D98A
D8A8D8B9D8AFD987D8A7
D8A7D984D983D8AAD8A8
##D8B5D98A
D8A7D984D8AED8A7D985D8B3
3331
D8B9D8AFD98AD8AFD8A9
D8A8D8B2
D985D8AAD8B9D8AFD8AFD8A9
D8A7D984D984D988D986
D8A7D984D8B8D8B1D988D981
D98AD8A7D8B3
D8A7D984D985D986D8A7D8B3D8A8D8A9
D8A7D984D986D987D8A7D8A6D98A
D8A7D984D985D985
D8A7D984D982D8AFD8B1D8A9
D8AAD8ADD8B1D98AD8B1
D982D8B1D8A8
##D984D98AD8B3
D983D8A3
D985D988D8A7D8AF
D8A7D984D985D988D8AA
##D987D984D983
D8A7D984D8B9D984D988D985
D8A7D988D8B1
D8ACD985D98AD984
D8A7D984D8B2D988D8A7D8AC
##D8ABD986D8A7D8A1
D8A7D984D8A8D8B1D8A7D8B2
D982D98AD8A7D985
D8B5D98A
D8A7D984D8A5D8B3D8A8
D988D8A8D8B9D8B6
D984D984D8AAD986
##D988D984D98AD986
##D8AAD8A8D8A7D8B9
D8A7D984D8A8D8A7D8A8
##D8B3D8B7D8B3
D8A7D984D983D98A
D988D8AAD981
D8BAD98AD8A7D8A8
D8B9D984D98AD983D985
D98AD8B1D8AC
D8A7D984D986D8A8
D8A7D984D8A8D8B1D98AD8B7D8A7D986D98AD8A9
D984D983D986D987D8A7
##D983D986D8AFD8B1
##D8A7D988D984D8A7D8AA
D8A7D984D8AAD981D8A7D8B5D98AD984
##D8B5D8A7D8A8
##D8AAD8B5D8A7D8B5
D8B6D8B1D8A8
D986D98AD988D8B2
##D8B9D985D8A7D984
##D8ABD984D8A9
D8AAD8ADD988D98AD984
D8A7D8AED8AAD8B1
D985D8B9D986D989
D8A7D984D985D8AFD986
D8A7D984D988D981
##D8B2D982
##D8B4D986
D984D985D8B4
D8A7D8ACD984
D984D8B9D8A8
##D8ACD98AD8A9
##D984D982D989
D8A7D984D8B9D8A7D8A8
D8B3D98AD8A7D8B1D8A7D8AA
##D8B1D987
D988D981D8B1
D982D8A7D8B9D8AFD8A9
##D8B7D982
D985D984D8B9D8A8
D981D981D98A
##7374
D8A7D984D983D988D986
##D8A7D8ACD8AAD985D8A7D8B9
D8A7D984D983D8A7D8AAD8A8
D982D8B1D8A7D8A1D8A9
3335
##D8A8D984D8BA
D8AAD8B1D8A7D8ACD8B9
##D8AAD982D989
D988D8A7D984D8B6
##6163
D8A7D984D981D8ADD985
##D8B3D98AD8A7
##D8B8D984
D988D8A7D984D985D8B3D8AA
D8A7D984D8ADD988D8AB
D984D98AD981
D987D8A7D985
D982D8A7D8A6D8AF
##D8B1D982D8A7D985
##D8ACD985D8A7D8AA
##D988D987D8A7D8AA
D8A7D984D8B7D8A8D98AD8A8
D985D8B4D8A7D8B1D983
##D8AAD988D986
##D8B8D8A8D98A
313937
D8A5D8B6D8A7D981
D8AFD8A7D8A6D8B1D8A9
D988D8B5D984D8AA
D985D8AFD8A9
D981D983D8A7D986
D987D989
##D98AD988D985
D8A7D984D983D986
D8A8D8B9D98AD8AFD8A7
D8B9D8AFD8AFD8A7
##D8B7D8B1D8AD
D8ADD981D984
D8B3D8A4D8A7D984
D8A7D984D8B1D8ADD985D986
##D8B3D981
D985D8B3D8A7D8ADD8A9
##D983D988D8B1
D8A7D984D8BAD8B1D8A8
##6574
D98AD8B6
##D988D98AD8AF
D984D8AAD8B3
D985D987D8B1D8ACD8A7D986
D8AAD8B4D8B1D98AD986
##D8A7D8AAD986D8A7
D8A7D984D8B0D8A7D8AA
D8A7D984D8A3D8ACD986D8A8D98AD8A9
D985D8B3D8AAD8B4D981D989
D8A7D984D985D8B4D8A7D8B1D983
D8AED984D8A7D981
D8A7D984D8ACD988D98AD8A9
D988D98AD8AF
D8B6D8BAD8B7
D98AD984D98A
D8A7D984D985D8AAD988
##6F75
D8B7D988D8A7D984
##6F6F
D8A8D984D8BAD8AA
D8B9D8A8D8A7D8B3
D8A7D984D988D8ADD8AFD8A9
D8ACD984
D98AD8AAD988
D8A7D984D8A8D8A7D8B1
D98AD8ADD8A8
D8A8D8A7D8B9D8AAD8A8D8A7D8B1
D986D8ACD8AF
##D988D8B6D8A7D8B9
##D8ABD8B1D8A9
D8A7D984D8AAD8B9D984D98AD985D98AD8A9
D8AAD988D982D8B9
D8A7D984D8A7D8ADD8AAD98A
D8ADD982D982
D8B4D8A3D986
D8B3D8AC
##D8A7D8B9D98AD984
D8A7D984D983D985D8A8D98AD988D8AAD8B1
D8ACD8A7D987
D8A7D984D8AAD985
##D986D8AFD986
D8A3D984D985D8A7D986D98AD8A7
D8A8D8ADD982
D8A3D8B1D8A8D8B9
D8A7D984D985D8AAD987D985
D8A7D984D981D8AA
##D8BAD8A7D984
D985D985D98AD8B2
D983D8A7D984
D985D8ACD984D8A9
##D988D8B1D8AA
D8AAD98A
D8ACD988D8AFD8A9
D8A7D984D8AAD8BAD98AD98AD8B1
D985D98AD8A7D987
D8A7D984D8A5D981
##D8A7D8AFD8B1D8A7D8AA
D8A7D984D985D8A4D985D986
D985D986D8A7
D8AFD8AE
##D8A8D98AD8B9D8A7D8AA
##D8ABD988D8B1
##D8AAD8B5D8A7D8B1
##D986D98AD983
##D988D8A7D8ACD987D8A9
D985D8B4D8A7D8B1D98AD8B9
##D8B8D8A7D987D8B1
D8A3D986D983
##D8AAD8A7D8A8D8B9D8A9
D8A7D8B3D8AAD8BA
D8A7D984D8B9D985D984D98AD8A7D8AA
D985D982D8AAD984
##D8B7D989
D8A7D984D8A7D988D984D989
D8AAD988D8A7D8ACD987
##D8A8D8A7D8B7
##D983D8AAD8A8
D983D984D985D8A7D8AA
D8AAD988D98AD8AAD8B1
D98AD8A8D984D8BA
##D982D8A7D8B7
D988D8A7D984D8A7D982
D8A7D984D8A7D986D8AAD982
##D98AD986D987
D8A7D984D8ADD8B1D8A7D8B1D8A9
D8A7D984D8ACD986D988D8A8D98AD8A9
D8AAD8ADD8B3D98AD986
##D988D8B0
##D8AED8A7D984
##D8ACD985D8A7D984D98A
##D985D98AD8B1
D8A7D984D981D98AD8B1D988D8B3
D8A8D8B6
D8A3D989
##D8A8D8A7D8ADD98AD8A9
D8AAD8B4D983D984
D8A7D984D8A7D984D983D8AAD8B1
D985D8AFD8A7D8B1
E28099
D984D8A3D98A
D8A3D8B5D8AFD8B1
D8A7D8AA
D8A8D98AD8AF
##D8AAD8B2D8A7D985
D8A7D984D8B2D98AD8AA
D8A3D8ACD8B1
D8A7D984D983D987D8B1D8A8D8A7D8A1
D8A7D984D982D8AA
##D8AAD8B1D8AD
D988D8A3D986D987
##D988D981D98A
##D8B1D98AD8ADD8A9
D981D987D8B0D8A7
D8A7D984D985D982D8A7D988D985D8A9
D8A7D984D8B1D8A6
D8A7D984D8B1D98AD8A7D8B6D8A9
##D8A7D8ACD8A6D98AD986
D8B0D8A7D8AAD987
D8A7D984D8B4D8A7D8B1D8B9
D8A3D98AD986
D8A7D984D8B5D8ADD981D98A
D8A7D984D981D8B3D8A7D8AF
D988D8A7D984D8B9D985D984
D8A7D8B9D8AAD8A8D8A7D8B1
D8A7D984D8A3D981D8B6D984
##D8B1D98AD982D98AD8A9
D8AFD8B1D8AC
##616D
D8A7D984D8AFD98AD986D98AD8A9
D8A7D984D982D8A7D986D988D986D98AD8A9
D8A7D984D8BAD8A7D8B2
##D981D986
D8ADD985D8A7D8B3
D988D985D8A4
##D988D8B3D8B9
D985D8B1D988D8B1
D988D984D983D986D987
D8A7D984D8A5D8AED988D8A7D986
D8A7D984D8ACD986D8B3D98AD8A9
D8B1D8B4
D8A7D984D8B4D8B9D8A8D98A
D8A7D8ADD8AAD8AC
D988D8A7D984D985D8AF
##D984D8B0
##D8AAD8B5D8B1
D983D8A8D8A7D8B1
##D983D8B1D987
D8A8D98AD8A7D986D8A7D8AA
32303130
D988D8AAD8B1D983
##D984D8BAD8A7D8A1
D8A7D8B3D8AAD8B4
D8B9D8A7D984D985D98A
D8A7D984D8A5D98AD8B7
##D988D986D8AF
##D8AFD8B1D8B3
D985D986D8AAD8AFD989
##D988D8B3D8B7D8A9
##D8AAD988D8AD
D8A7D984D981D8B1D8AF
D8A7D984D986D8B8
D8A7D984D8B1D8AC
D984D984D8B2
D986D985D988D8B0D8AC
D8A7D984D985D8B4D8A7D983D984
D985D8B3D8A8
D8A7D984D8ADD982D98AD982D98A
D8A8D985D8AFD98AD986D8A9
D8AED98AD8A7D8B1D8A7D8AA
##D8AAD987D8A7D8A1
D8A7D984D8A7D985D98AD8B1
D8A7D984D8B1D985
D8A7D984D8B3D8A4D8A7D984
D8A7D984D8B9D8A7D985D984D98AD986
D8A7D984D8AED984
D988D8A7D985
D8AAD982D8B9
D8A7D984D985D8B5D986
D8A7D984D8AAD8A7D8B3
D8A7D984D985D987D985D8A9
D8A7D984D8B0D987
D8AED8B7D988D8A9
D8A7D984D8A3D985D8B1D8A7D8B6
D985D98AD8B2
D8AFD988D8B1D8A9
D8A5D8ABD8B1
D98AD8B3D985D8AD
D8A7D984D8A3D8B3D988D8A7D982
##D8A7D986D98AD98AD986
##D8A7D982D8A8
D984D984D985D986
##D985D988D98AD8A9
D8A7D984D8ADD8A7D8ACD8A9
D8A7D984D8B4D8B1D8B9D98AD8A9
D983D986D8A7
##D8B5D8A7D8A8D8A7D8AA
D8A7D984D8B1D988D8B3D98AD8A9
D988D985D8AF
D8A8D8A7D8B1D98AD8B3
D8A8D985D8AC
D8AFD982D8A7D8A6D982
D988D984D8B0D984D983
##D8AAD98AD8A9
D988D985D8B5
D98AD8A4D983D8AF
##D988D8A7D8AAD981
D982D984
D8A7D984D8B3D983D8B1
D8A7D8B3D8AAD8B9D8AFD8A7D8AF
##D986D8B3D8A7D8A1
D985D8ADD983D985D8A9
##D983D8B1D8B1
D8A7D984D8A3D8ADD8AFD8A7D8AB
##D8ABD985D8A7D986
##D8BAD8B7D98AD8A9
D985D982D8AF
D8B3D98AD8A7D8B3D8A9
D988D8B8D8A7D8A6D981
D984D8AAD8B4
##D98AD8B3D989
D8AAD984
D8A7D984D8AAD8BA
D8A7D984D8A3D8B1D8A7D8B6D98A
D985D8A4D8B4D8B1
D8A8D8B2D98A
D8B3D984D98AD985D8A7D986
D8A7D98AD8B1
D8A3D8B6
D8B9D8B5D8B1
D8A7D8B3D8AAD981
D8A7D984D986D8ACD8A7D8AD
D8A7D984D982D8B6D8A7D98AD8A7
##D8A7D987D985D8A9
313936
D8A7D984D8B3D98AD8A7D8ADD8A9
D986D981D8B3D98A
D985D8B9D987D985
##D986D8AAD98AD986
D981D8AAD8A7D8A9
D8B1D8B6D98A
D8A7D984D8A8D8B4D8B1D8A9
D8AAD8ACD8B9D984
D8A7D984D985D8B9D8AFD8A7D8AA
D8A7D984D985D8AAD8ADD8AFD8AB
D985D8A8D8A7D8B1D983
D8B9D8A7D8B4
##D8A7D8B4D8AF
D8A7D984D986D8B4D8A7D8B7
D8AAD8B2D8A7D984
D8A8D8ADD8A7D8ACD8A9
##D8B1D988D98AD8AC
##D8A7D987D98AD8A9
D8A7D984D8AFD98AD985D982D8B1D8A7D8B7D98AD8A9
D98AD988D986
D8A7D984D986D987D8A7D98AD8A9
D8A7D984D985D982D8A7D984
D8A7D8ADD8AAD981
D8A7D986D8AF
D8A7D984D8B9D8A7D984D98A
D8AAD988D8ACD987
D8A7D984D8AED98A
D8A8D8B9D986D988D8A7D986
D8AAD8B9D988D8AF
D984D984D8A7
D8B7D8A7D8AD
##D8A7D8AFD987D8A7
##3231
##D8B1D981D98AD8A9
D8A7D984D988D8A7D8ADD8AF
D8B3D8A7D8A8D982D8A7
D8A3D8B7D981D8A7D984
D8A8D8A3D98A
D8A7D984D8A7D8B7
D8A7D984D8AAD8ACD8A7D8B1D98A
##D984D98AD985D98AD8A9
D8A5D985D983D8A7D986D98AD8A9
D983D8B1D98A
D984D98AD984D8A9
##6164
D8A7D984D987D98A
##D8A7D982D98AD8A9
D8A7D986D8AED981D8A7D8B6
D983D8B1D98AD985
D98AD8A8D8AFD8A3
D8A7D984D8B6D988D8A1
D988D8A7D981
D984D8B5D8A7D984D8AD
D8B9D8A7D8A6
D8A7D984D986D8AD
D8B4D8AED8B5D8A7
D8A7D984D8A3D988D8B1D988D8A8D98AD8A9
D8A7D984D8A7D986D8AAD8AE
##D8B7D987
D8A7D984D986D8B5D8B1
D8ADD98AD8A7D8AAD987
D8BAD8AFD8A7
D988D8A7D8B6D8ADD8A9
##D8B4D8A8
D981D8AC
D8AED98AD8A7D8B1
D98AD982D8B9
D986D8B3D8AED8A9
##D8B6D98AD8B1
D8A8D988D983
D8ABD8A7D984D8AB
D985D8B9D8AFD984
D8ACD985D8A7D8B9D8A9
D985D988D986
D8A7D984D8ACD984D8AF
##D8B3D989
D988D986D982D984
##D8A7D8B4D8B1D8A9
D8B0D8A7D983
##D988D8B1D8AC
D8A5D982D8A7D985D8A9
##D8A7D8A6D98AD8A7D8AA
D8A7D984D8A8D8B4
D8AAD8B4D985D984
333030
D8A7D984D985D8AAD988D8B3D8B7
D8AAD8B5D986D98AD8B9
D985D8B9D8A7D984D8ACD8A9
D8A7D986D8AAD987D8A7D8A1
##D8A3D983D98AD8AF
D8A7D984D8B3D8A7D8A8D8B9
D982D8AFD8B1D8A9
D8A7D984D8B3D98AD8B7D8B1D8A9
D985D986D8B4
##D8A7D8B5D981D8A7D8AA
D8B5D981D988D981
D8A7D984D8B1D988D8B3D98A
D8A5D8B9D8AFD8A7D8AF
##D984D8B7D8A9
D8A7D984D8ADD982D988D982
##D985D8A7D984D98A
D8A7D984D988D8B8
##D8AAD8AED8B5D8B5D8A9
D98AD8AFD8AED984
D8A3D8BAD8B3D8B7D8B3
D8B4D986
D8A7D984D985D982D8B1D8B1
D988D988D981
D8A7D984D8AAD8ADD8A7D984D981
##D8B1D988D981D8A9
D988D98AD982D988D984
D98AD982D984
##D8B1D98AD8A7D8B6
D8A7D984D8A7D8ADD8AAD981
D981D985
D8A7D984D8ACD985D987D988D8B1
D98AD8B5D8A8D8AD
##D8B7D984D8B9
3030
D8A3D988D8A8
D8A7D984D981D988
D8A7D8AED8A8D8A7D8B1
D8ACD985D98AD984D8A9
##D8B1D8A7D8A1D8A7D8AA
##D8BAD8A7D986
D8A7D984D985D8B3D8ACD8AF
D8A7D984D985D8B3D984D985
##D8A7D8AFD98AD985D98AD8A9
D8A7D984D8AAD985D988
D986D8B3D8A8
##D98AD982D8A9
##D8B3D8A7D8B3
D8A7D984D985D986D8AAD8AFD989
D8A8D8A7D984D8AAD8B9D8A7D988D986
D982D984D8AA
D8B7D988D98AD984
##D8A8D8ADD8A7D8AB
D8B3D984D985
D8A7D984D8ADD8B1D98AD8A9
##D983D984D8A7D8AA
D8A7D984D985D8BAD8B1D8A8D98A
##D8A7D984D98AD8A8
D8A7D984D981D984D8B3D8B7D98AD986D98AD98AD986
D988D8B1D8A6D98AD8B3
D985D988D8B3D989
D8A7D984D8AAD986D981D98AD8B0D98A
D8A7D984D8A3D985D988D8A7D984
D8AAD8B1D8AF
D8A7D984D985D984D983D98A
##D8AED8B5D988D8B5
D987D983D8B0D8A7
D985D8B1D8A7D983D8B2
D986D8A7D8ADD98AD8A9
D8A7D984D8B9D987D8AF
D8A7D984D8ADD8B1D8A9
D8AAD8B4D987D8AF
D8AED98A
##D8B2D8B2
D988D8B9D986D8AFD985D8A7
##D8ABD985D8A7D8B1D8A7D8AA
D8A7D984D986D8A7D8AA
D8AFD98AD986D8A7D8B1
##D8A7D8B6D989
D8A7D984D8A7D8B3D985
##D987D985D98AD8A9
D8A8D8B9D98AD8AF
D8A8D988D984
D8AAD8B1D989
##D981D98AD8B6
D988D8B7D8A7D984D8A8
D8BAD8B1D981
D8A7D987D8AAD985D8A7D985
D8A8D8B1D8A6D8A7D8B3D8A9
##D984D981D8B2D98AD988D986
##D8A7D8B6D8B1
D8B5D981D8ADD8A9
D982D8B1D98AD8A9
D8A7D984D8AED984D8A7D981
##D8AED988D8B1
D8B3D988D8AF
D8A7D984D8A3D8B4D98AD8A7D8A1
##D8B4D8B1D8A7D981
##D8A7D983D985D8A9
D988D8AAD8B3D8AA
D983D8A7D986D988D986
D8B4D981
D988D8A7D8B5
D985D986D8A7D8B3D8A8D8A9
D8A7D984D985D8B5D8B1D989
##D982D98AD986
D8A7D984D985D8AAD988D982D8B9
D985D8A7D984D98A
D8A3D8A8D8B7D8A7D984
D8A7D984D8A8D8A7D984D8BA
D8B4D8B1D8B7D8A9
D984D985D988D8A7D8ACD987D8A9
##D8B7D988D8B1D8A9
D984D8A7D8A8D8AF
D983D985D98AD8A9
D981D8A7D8AA
##D8A7D8AFD984D8A9
##D8B7D8A8D98AD982
##D987D8B1D8A7D986
##D8AED985D8A9
D8A7D984D8A3D8B3D988D8AF
D8A7D984D984D98AD984
##D982D98AD8A7D985
D985D98AD986
D8B4D987D8A7D8AFD8A9
D8B4D8AFD98AD8AF
D8A7D984D981D982
D8AAD981D8B3D98AD8B1
D8A7D984D8B4D985D8A7D984D98AD8A9
##D983D986D8AFD8B1D98AD8A9
##D988D8ACD984
D8A7D984D8B1D8AF
D8A7D984D8ABD8AFD98A
D8A7D8ACD985D984
##6F6D
##D8B7D8A7D986
##D98AD983D98AD8A9
D984D8A5D986
D8A7D984D8A7D986D8B3D8A7D986
D8A7D984D8A7D8AAD8B5D8A7D984D8A7D8AA
D8A7D984D8A3D983D8A8D8B1
D8A8D8ADD8B6D988D8B1
D8A3D8A8D8AFD8A7
##D988D8A7D986D98A
D8A8D8B1D98A
##D8A7D984D985D8A7
##D8ACD98AD8B9
D8A7D984D8ACD986D988D8A8
D8A7D984D8A7D987D8AAD985D8A7D985
D8B0D987
D8A7D984D8ABD982D8A7D981D98AD8A9
##D8A7D8ADD986
D8A7D984D8ABD984D8A7D8ABD8A9
D8A7D984D985D8B4D8AAD8B1D983
D985D984D8A7D8A8D8B3
##D8B8D988D985D8A9
D8A5D986D985D8A7
D98AD988D981D8B1
D8A8D982D988D8A9
##D8AAD8ADD8AFD8AB
##656C
D988D8A3D98AD8B6D8A7
##D98AD8A7D8A9
D8AAD8ADD982D982
D985D8B3D8AAD988D98AD8A7D8AA
D8A7D984D98AD988D985D98AD8A9
D984D986D8AFD986
D8ACD984D8B3D8A9
D8B9D8B3D983D8B1D98AD8A9
D983D984D8A7
##D8A7D8A8D8B7D8A9
D8A7D984D8A3D985D98AD986
D8A3D8A8D8B1D98AD984
3332
##D8AAD8AED8B0
D985D988D8ACD988D8AF
D8A3D8B4D8AED8A7D8B5
D984D984D985D8B4
##D8A8D8AE
D8A7D984D8B1D8A7D8A8D8B9D8A9
D986D986
D8A7D984D984D8B9D8A8
D8ACD8B0
##D988D982D98AD8AA
D8A7D984D985D8B3D8A7D8B9D8AF
D8A3D8ADD8AFD8A7D8AB
##D981D8B2
D8A7D8B3D8AAD8B1D8A7D8AAD98AD8ACD98AD8A9
##D8B1D8A7D8B2
D8A7D984D8AED8B6
##A7D984D8A7
##D8B1D988D98A
D8A7D984D985D8AFD986D98AD8A9
D984D8A3D988D984
D982D984D98AD984D8A7
D986D981D8B3D983
D8B7D981D984
D984D8AAD8B1
D985D986D8AAD8B5D981
D8A7D984D8B3D8A7D8AFD8B3
D8B9D8A7D8AC
D8A7D984D985D986D8A7D8B3D8A8
##D8B6D8A7D8B9
D8A7D984D985D988D982D981
D8ABD8A7D986D98A
D8A7D984D8B1D8A3D98A
##D8AAD8A8D8A7D8B1D8A7D8AA
D985D8ADD984
##D98AD8AAD987D8A7
##D984D8B9D8A9
##D986D8A7D8B9D8A9
##D8A7D985D8AA
##D8B3D8A7D8A6D8B1
D8A7D984D8A3D984D8B9D8A7D8A8
D8A7D984D8A3D8B3D8B1D8A9
##D8B1D988D8B1D98A
##D8A3D8AAD98A
D8A5D8AC
##D8AAD981D982
D8A7D984D8ADD984D982D8A9
D98AD8B4D983D984
##D8AFD8B1D8AC
##D98AD984D987
##D8A7D8B9D985
D8A7D984D8B4D8A7D8A8
D985D8B7D8A7D8B1
##D8AAD8B1D8A8
D8A7D984D8ACD8B2D8A7D8A6D8B1D98A
D987D8ACD988D985
##D8B4D981D98AD8A7D8AA
D985D8AAD8B1D8ACD985
D988D8B1D8A8D985D8A7
##D8B1D8ACD8A7D984
D985D8AAD8A3
D984D8B9D8A7D985
##D982D8B5
##D985D984D8AA
D8A7D984D8B3D983D986
##D982D8AAD984
##D8B3D8A7
##D8ADD8A7D98AD8A7
D8A7D984D8ACD987D988D8AF
##D8ACD988
D8B4D987D8AFD8AA
D8B4D8A8D987
##D8AED8AFD985D8A9
D988D8AAD8AE
##D988D985D8A7D986
##D983D8A7D986D98A
D8A7D984D8AAD8B4D8BAD98AD984
D8A5D8A8
##D8A7D98AD8AA
D988D981D989
D8A8D8A7D984D8A7D986
D8A7D984D985D984D8A7D8A8D8B3
D8A7D984D985D986D8B2
##D8A7D8B3D984
D8A3D988D8B6D8AD
D985D8A7D984D98AD8A9
D8A7D984D8A8D8B1D988
D986D8ACD985
D985D986D8AAD8ACD8A7D8AA
D8ADD8A7D8AFD8AB
D8A7D8B3D8AAD985
D8AAD8B6D985
D8AAD988D8ACD98AD987
D985D8B3D8AAD982D8A8D984
D8A7D984D8A3D8B5D984
##D8B3D987
D8B9D985D8A7
D8A3D8B2
D8B3D984D8A7D985
D8A7D984D8B4D8A7D8B9D8B1
D8A7D984D985D8B3D8AAD8B4D981D989
3435
D8B6D8B9D981
D8A8D8A7D984D8A7D8B3
##D8B7D8A7D984D8A8
##D8B9D988D8AF
##D8B1D982D8A9
D985D8B5D8A7D984D8AD
D8A8D8A7D984D984D987
D988D8B9D8AFD8AF
D8A7D984D8AAD8ADD983D985
D8B4D8A7D8B1D8B9
D8A8D8AAD8B5
D985D8AAD8A7D8A8D8B9D8A9
D98AD8B9D8A7D986D98A
D8A7D984D8AAD982D8AFD985
D983D8B3D8A7D8B1D8A7D8AA
D988D8A3D981
##D8AAD8A8D8A7D8B7
D984D988D986
D8A7D986D8B3
##D98AD8AFD8B1
D985D8B3D8AD
D8A7D984D8ADD8B1D98AD8B1
D8A7D984D8B9D8AFD8AF
D8ACD8A7D8A6D8B2D8A9
D8B6D988D8A1
D8A8D8A7D8B3D8AA
D8ADD8B1D8B5
D8A7D984D8B5D8AF
D8B1D8ADD984D8A9
D98AD8B4D8B9D8B1
##D98AD8AE
D8A7D984D985D8B5D8A7D8AFD8B1
D8A3D8A8D988D8B8D8A8D98A
D8A7D984D98AD988D986
D8AAD8AAD988
D98AD8AAD8B1
##D986D987D8A7
D8A2D8B3D98AD8A7
D982D8B6D8A7D98AD8A7
D8A7D984D8B5D8ADD98AD8AD
D8B3D8B9D988D8AF
##D985D983D8A7D986
D986D8B5D8B1
D8A7D984D982D8A7D8B9D8AFD8A9
D8A3D8B1D8B3
D988D8A7D8B6D8A7D981
3830
D8A7D984D982D8B3D985
D8A7D984D986D8A7D8B4
D985D983D8A9
D8AAD8AED8B5
D8A7D984D985D8AED8AAD8B5
D98AD985D984D983
D8A8D98AD986D987D985D8A7
D8AAD8B6D985D986
##D985D988D984D8A9
D8B2D98AD986
D8A7D984D8A7D985D8B1
D8A8D8B1D98AD8B7D8A7D986D98AD8A7
##D984D982D8AA
D8B5D8A8
D984D8BAD8A9
D981D988D8A7D8A6D8AF
D988D8A7D984D8A7D8ACD8AAD985D8A7D8B9
D8A7D984D985D8B0D983
D8A3D983D8AFD8AA
D98AD8A8D8ADD8AB
D988D8B3D988D981
D8A7D984D985D8B4D8AAD8B1D983D8A9
D8A8D981D8B6D984
D988D988D8B6D8B9
D8ACD988D986
E28098
##D984D988D8A8D8A9
3730
D8A3D8ADD8A8
##D8AAD988D8ADD8A9
D98AD8B3D985D989
D8AAD8B4D98AD8B1
D8A7D984D8ABD982D8A7D981D98A
##D983D8A7D8A1
D8A3D8B9D8AF
##D8A3D986D987
D8A7D984D8B3D983D8A7D986
D983D8B4D981D8AA
D8A7D984D8ABD982D8A9
D982D8B1D8B1
##D982D988D985
D8B8D8B1D988D981
D981D8B9D984D8A7
D8ACD8B3D985
D8A7D984D8B5D98AD986D98AD8A9
D98AD8ADD98A
D8ADD982D8A7
D8A7D984D984D8BA
D8A7D981D8AAD8AAD8A7D8AD
D8A8D8B9D8AFD985
D8A8D8B9D8B6D987D8A7
D8B3D98AD985D8A7
##D8AAD985D8A7D984
D8B3D98AD8A7D8B3D98A
D8A3D8B3D985D8A7D8A1
D983D988D8A8
D8B5D8ADD98A
##D8BAD988D8B7
D988D8A3D8B5
D988D8A7D984D8AAD982
D8A7D984D8AAD8B3D8ACD98AD984
D988D984D8A3
D8A7D984D8B5D8A8D8A7D8AD
D985D8B0
D8A7D984D8ADD8B3D98AD986
D8ACD8B1D8A7D8A1
D8B4D8B1D988D8B7
D8A7D984D985D8B3D8B1D8AD
D986D982D8B5
D8B3D8AAD8A9
D8ADD984D985
D981D8A8
D98AD8ACD8B1D98A
D983D987D8B1D8A8
D8A7D8B3D8AAD8AED8AFD985
D8BAD8A7D984D8A8D8A7
D981D8A7D8B1
D8A7D984D8B4D8A7D8B4D8A9
D8B9D985D8B1D988
D982D8B7D8B9D8A9
D8A7D984D987D8AF
D8A7D984D8ADD8A7D8AFD8AB
D985D986D8AAD8AFD98AD8A7D8AA
D8A7D984D985D8ACD8A7D984D8A7D8AA
##D8ACD8A7
##D8A7D8AAD984
D8A7D984D8B1D8B3D988D984
D8A7D984D8AAD981D983D98AD8B1
D8A7D984D8AED98AD8A7D8B1
D8A7D984D8AAD982D986D98AD8A9
D988D8A3D8B6D8A7D981D8AA
D8AAD8ADD8B5D984
D8A7D984D983D8B3
D8B5D8B1
D8A7D984D983D8B4D981
##D8B1D8AFD8B4D8A9
D8A7D984D8A5D8A8D8A7D8ADD98AD8A9
D8A7D984D8B5D987D98A
D988D8A7D984D8AAD8B1
D988D984D8B9
D8A7D984D8A5D8AB
32303038
D8A7D986D8AAD8AED8A7D8A8D8A7D8AA
D8A7D984D8AFD8A7D8AED984D98A
D985D986D8B5D8A9
##D8B3D985D989
D8A7D8B3D8AAD8B1
D8AED984D98AD981D8A9
D98AD8AAD8ADD8AFD8AB
D8B7D984D8A7D8A8
D985D8A3
D8ACD8AFD8A9
##D8A7D8A6D8B5
##D8BAD8B1D8A8
D8B9D984D985D8A7
D8B1D8A3D98A
D8A7D984D985D8B7D984D988D8A8
D8B7D8A7D8ADD988D986D8A9
D8A7D984D8A8D984D8AFD98AD986
##D8B3D8A7D8A8
D8A7D984D982D8A8D8B6
##D98AD8AD
D981D8A7D8B9
D98AD8B9D8AAD982D8AF
D8A7D984D8A8D8ADD8B1D98AD8A9
D8A7D984D8ADD985D8AF
D981D8A7D8B2
##D8A7D982D984
D8A7D984D985D8B1D8A9
D988D8ADD98A
D98AD8ACD988D8B2
D8AAD8A7D8A8D8B9
##D98AD982D989
D8A7D984D985D8BAD8B1D8A8D98AD8A9
##D988D98AD8AAD98A
##D984D8B3D98A
D8A8D8A7D984D983D8A7D985D984
##D98AD8B6
D981D987D984
D8A7D984D8A7D985D8B1D98A
D987D8AF
##6173
D8A7D984D8AED8B1D988D8AC
##D8A7D8B7D8A6
D98AD8B9D8AAD985D8AF
D986D8A7D8B1
D8B3D8A8D8ADD8A7D986D987
D988D987D984
D8A7D984D8B3D98AD8B1
D981D8B9D8A7D984D98AD8A7D8AA
D8B4D8A6
3336
D986D982D8AFD985
D8A7D984D8B3D985D988
32303039
D984D8A8D8B9D8B6
D8B5D8B1D981
D981D983D8B1
##D8A7D986D8AA
D8A7D984D8B4D983D984
D8A8D8B3D987D988D984D8A9
D986D987D8A7D8A6D98A
##D988D8B1D989
D8A5D8B1
D8A8D983D8B1
##D8AAD8AFD8B1D98AD8A8
##D98AD8B1D98AD8A7
D8A7D984D8AAD988D986D8B3D98A
D8A7D984D8ACD8A7D985D8B9D8A7D8AA
D984D8AFD8B9D985
D8A7D8B3D8AAD8B7D8A7D8B9
D8A7D984D8ABD8A7D986D988D98AD8A9
D988D8B4D8B1
D8A5D8B5D8AFD8A7D8B1
D8A7D984D8A3D8B1D8A8
D98AD8ADD8A7D988D984
##D8B1D982D98AD8A9
D988D8A7D984D8ABD982
D985D8B2D98AD8AF
##D8B1D988D982
D8A8D984D8A7D8AFD987
D8A7D984D8B3D8A7D8AE
D8A7D8B3D8AAD8AD
D985D8AED8B1D988D8B7
D8A8D8A7D984D985D988
D8A8D8AAD8B3
##D988D8B8
##D8B7D984
D8A3D985D98AD986
##D981D8B5
D8A7D984D8B5D8B1D8A7D8B9
D8AAD8B5D988D98AD8B1
##D986D8AFD8A7
##D988D8A7D8B9D8AF
##D981D98AD8A7
D985D8B6D98AD981D8A7
##D982D98AD8A8
D8B1D8B3D985D98AD8A7
##D8A7D981D98AD8A7
D8B0D988
D8A7D8B9D8AAD985D8A7D8AF
D8AAD8ACD8A7D8B1D8A9
D8A8D8B7D8A7D982D8A9
D8A8D985D986D8A7D8B3D8A8D8A9
D984D8A7D985
D988D8B1D8BAD985
D984D984D98A
D8B5D8AFD98AD982
D8A7D984D988D8A7D982
D8A7D984D8AAD8ADD8B1D98AD8B1
D8A7D8AED8AAD8A8D8A7D8B1
D8AAD8B9D8AAD985D8AF
##D8A7D8B4D8A7D8AA
##D982D8B7D8B9
##D8B0D98AD8A8
D982D984D98AD984D8A9
D8B9D8B1D988D8B6
D8A7D984D985D8B1D8A7D987D982D8A9
3930
D8B4D8B9D8A7D8B1
D988D8AAD8AA
D8A7D984D983D8A7D985
D8AED8B7D988D8A7D8AA
D8A2D8ABD8A7D8B1
D8A7D8B6D8B7D8B1
D8A7D984D987D8ACD988D985
D8A8D8B3D98AD8B7D8A9
##D8AFD98AD984D8A7D8AA
D985D8A4D8B3D8B3D8A7D8AA
D988D8A7D984D8AAD989
D8A3D8B5D984
D8AAD8A7D98A
D8A7D984D8A8D984D8AFD8A7D986
D985D986D983
D8A7D984D8ACD985D8B9
D8AAD988D8B1
D8A3D8AFD988D8A7D8AA
D985D8B3D8A4
D8A5D986D8ACD8A7D8B2
##D8AAD985D8AA
D8A7D8B9D8AAD8A8D8B1
D8A7D984D985D8B1D983
D8ACD8B9
D8A7D984D985D8ADD985D988D984
##D8AAD8A7D985D98AD986
D8B6D985D8A7D986
D8A8D982D98AD985D8A9
D8A7D8AFD8A7D8B1D8A9
D8A7D984D8AAD8A7D8B1D98AD8AED98AD8A9
D982D8B1D98AD8A8D8A7
D983D8AAD8A7D8A8D8A9
D8AAD8A8D984D8BA
D8A8D986D8A7
D8A7D984D8B0D983D98AD8A9
D8A8D8B9D8B6D987D985
D8AAD983D984D981D8A9
##D988D8A7D986D8A8
D8A7D983D8A8D8B1
D985D988D8B3D985
##D8B7D984D8A8D8A7D8AA
D8A7D984D8A3D8ADD98AD8A7D986
D8A7D984D8B9D8AFD984
##D983D985D984
##D8B2D8B1
D8A7D984D8B9D982D8AF
D8B5D984D8A7D8A9
D988D8A7D984D985D8B5
D986D8ACD988D985
##D988D8BAD8A7D986
D8ACD984D8B3
D984D988D8ADD8A9
D8A7D984D8ADD988
D8A7D984D8ADD8B3D986
##D987D98AD8B1
##D8B4D98AD8A7D8AA
D8A8D8A7D8AE
D8AAD8A8D982D989
##D8AFD8B1D8ACD8A9
##D8ADD983
D982D8B5D98AD8B1D8A9
##D8A7D8B9D987
D8A7D984D985D982D8AFD985D8A9
D985D8B9D98AD986
D8ADD8B6
D8A7D984D982D985
##D8A7D986D8B3
D983D984D985D8A7
D8AAD982D986D98AD8A9
##D8A8D8B2
D8AAD8ADD8AFD98AD8AB
##D8B2D98AD985D8A9
D8ABD988D8B1D8A9
##D8A7D8AFD98AD986
D988D8ACD984
D8A7D984D8B9D986D8A7D8B5D8B1
D985D982D8A7D8B7D8B9
D8A7D984D985D8AAD8A8
D8A2D986
##D8A7D8B7D981D8A7D984
##D8A7D985D984D8A7D8AA
D8A7D984D981D8B9D984
##D988D98AD988D8B1D983
##D8AED8B5D8B5D8A9
D988D984D983D986D987D8A7
D8A7D984D985D8B3D8A4D988D984D98AD986
D98AD8ACD8AF
D981D987D8AF
##D8A7D8A6D989
D8A7D984D985D984D8AD
D986D8A7D8B5D8B1
##D8AAD8A7D985
##D98AD982D8A7D981
##D98AD8A1
##D8ABD985D8B1D98AD986
D982D8B1D8B1D8AA
D8A7D984D8B7D984D8A8D8A9
D8A3D985D984
##D987D8AFD8AF
##D8A7D988D985
##D984D8A7D984D8A7
##D8B4D988
D98AD8A8D982D989
D8A7D984D8A3D8B7D8B1D8A7D981
D8A7D984D985D8B9D8B1D988D981
D8AAD8B9D8AFD98AD984
D982D8A7D8AF
D8AFD98AD983
D8A7D984D983D987D8B1D8A8D8A7D8A6D98AD8A9
D8A7D984D8AAD8B6
D8B3D8B7D8AD
D8AAD8B1D8A8
##3330
D8A7D984D986D98AD8A7D8A8D8A9
D984D8A2
D985D8A7D984
D8B3D982D988D8B7
D8A7D984D985D8B9D986D98AD8A9
D988D8B0
D8A7D984D8ADD8B5
##D98AD8AFD8A7D8AA
D8A7D984D8B9D8AC
D988D983D98AD984
D988D8A7D984D985D8AA
##D8AED98A
303030
D983D988D985
D8A7D984D981D8B1D8B5D8A9
D982D8B1D8A7D8B1D8A7D8AA
D8A7D984D8AFD988D984D8A7D8B1
D981D8A7D8B3
##D8AAD8A7D8B1
D8AAD8B9D984D98AD982
D8A7D984D985D8A7D8A6D8A9
D8A7D984D8A3D8B3D8A8D8A7D8A8
D985D8AAD986D988D8B9D8A9
D985D8B3D984D985
D8B1D988D8A7D98AD8A9
##D8ACD985D988D8B9D8A9
##D8ABD8A7D984
D986D8A7D8AC
D8A2D984D8A7D8AA
D8B3D98AD981
D8ADD988D8A7D8B1
D8A3D982D8B1
D984D8A7D981D8AAD8A7
D988D8A3D8B4
##D8A7D985D8B1
D8B7D8A8D98AD8B9D98A
##D8A4D983D8AF
D8A7D984D8B9D8B5D8B1
D8A7D984D985D8B3D8AAD8AED8AFD985D8A9
D8ADD984D988D984
##D984D8A7D988D8A9
D8B4D8A7D8B4D8A9
D8B3D8B1D98A
D8ADD8A7D8AC
D8B1D8A7D8AD
##D8A7D8A6D986D8A7
D985D988D8B6D8AD
D8B3D8B1D8B9D8A9
##D8ADD98AD986
D8B7D98AD8A8
D8A8D8B1D8AC
##D8AAD983D984D985
D8B3D983D986
D988D8A7D984D8A7D982D8AAD8B5
D8A8D982D98AD8A7D8AFD8A9
##D981D98AD981D8A9
D988D8A8D8A7D984D8
D8B0D983D8B1D8AA
D985D8A8D984D8BA
D8B0D987D8A8
D8A7D8AAD8ACD8A7D987
D8A2D8AED8B1D98AD986
D8B4D8A7D8A8
##D8B7D8B1D98AD8A9
D8A3D8BAD984D8A8
##D8A7D8B1D985
##D8A8D8AFD8A7D984
##D988D8AFD987
D8A7D984D98AD8B3
D984D988D983
D8A7D984D8ADD98AD988D8A7D986D8A7D8AA
##D8B7D984D8AD
D8A7D984D8A8D986D988D983
D8AAD8B5D8A8D8AD
##D8AAD8A8D8B7D8A9
D8A7D8B3D8AAD986
D8A5D98AD8B1
D985D8ACD985D988D8B9
##D981D988D986
D8A7D984D982D8AFD98AD985
D8A7D984D8A7D8AAD8ACD8A7D987
D8AAD8B2D98AD8AF
D8B9D8A7D8AFD984
D8A7D8B3D985D987
D8AAD8B9D98AD8B4
##D8A7D987D8A8
D8AAD8A4D8AFD98A
##D982D8A7D985
##D8BAD8A7D8B1
##D8AAD8B1D8A7D8B6
D8A7D984D983D984D985D8A7D8AA
##D8AFD8A7D8B1
D8A7D984D985D8B5D8B1D98AD98AD986
D984D982D98A
D8A7D984D8B5D8ADD98AD981D8A9
D984D8ADD8B8D8A9
D982D988D98A
D8A7D984D985D98AD984
D8B0D988D98A
D8A7D984D8B7D98AD8B1D8A7D986
D8A7D984D8A7D8B6
D98AD988D8B1D988
##D8A7D8B1D8A6
D8B9D8B4D8B1D8A7D8AA
##D8AAD8AED984D8B5
D8A7D984D985D984D98A
##D8AAD8A8D8A7D987
D8A7D984D8A3D8B3D8A7D8B3D98A
D8AAD8A3D8B3D98AD8B3
D8A7D984D8A8D98AD8B6D8A7D8A1
##D8AFD985D98AD8B1
D8A7D984D985D987D8B1D8ACD8A7D986
D8A7D984D985D988D8A7D8B1D8AF
D8A3D8ADD98AD8A7D986D8A7
##D98AD984D98AD8A9
D8A7D984D8ADD985D984D8A9
D988D8A3D983D8ABD8B1
D8A7D984D8ACD984
##D8A7D8B5D8B1D8A9
D8A7D984D8AAD8B1D983D98AD8B2
##D8A8D8B9D8B6
D8ACD988D8ACD984
D8A7D984D8A3D984D985D8A7D986D98AD8A9
##D8A7D8B3D98AD8A7
D8B9D8B3D983D8B1D98A
##D981D8B9D98AD984
D8AAD8B7D988D8B1
D8B1D8B3D985
D8A7D984D8A5D98AD8AC
D8A7D984D8A3D8B9D8B6D8A7D8A1
D988D8AED8B5
D8A7D984D986D8AAD98AD8ACD8A9
D988D8ACD8AFD8AA
##D988D8A7D8B1D98AD8AE
D8A7D984D985D8B9D8B1D8B6
D8A7D984D8AAD8B1D8A8
D98AD8B6D8B9
D982D988D8A7D8B9D8AF
D8A7D984D8B7D981
D8A7D984D8B9D8AFD8A7D984D8A9
D8BAD8B3
##D8B1D98AD983D8A7
D985D8AAD988D8B3D8B7
D8A7D984D984D8A7D8ACD8A6D98AD986
D8A7D984D8B3D98AD8A7D8ADD98AD8A9
##D8A7D984D981D8A9
D985D8B3D8A3D984D8A9
D982D985D8A9
D8B9D8B2D98AD8B2
D98AD988D8A7D8ACD987
D8B1D8ADD985D987
D982D984D98AD984
D8A7D984D985D98AD8B2
D988D987D986D8A7
3031
D8A7D984D8B7D8A7D8A6D8B1D8A9
D8A7D984D8A8D8B1D98AD8AF
##D988D8AFD8A7
D988D8A7D8B3D8B9
D8A7D984D8B4D8A4D988D986
##D8B8D8A7D987D8B1D8A7D8AA
D8A8D8AED8B5D988D8B5
##D8A8D988D8A8
D8ACD8A7D986D8A8D987
D8B2D988D8ACD987D8A7
D8A5D8B3D985
##D988D8AAD98AD986
##D8A8D8AFD8A7D8B9
D984D984D985D8B1D8A9
##D987D988D8A9
D8B3D984D8A7D985D8A9
D8A7D984D8A7D986D8B3
D8A7D984D985D8B5D8A7D984D8AD
D8ADD8B5D984D8AA
D988D8A7D984D8AAD988
D8AAD8B9D98AD98AD986
D8AAD8B9D984D986
D985D985D8ABD984
##D8B3D8A7D8B1
D8A8D8AAD8A7D8B1D98AD8AE
##6964
D8BAD98AD8B1D987
D8ACD8B1D989
D8A7D984D8B0D983D8B1
D8B3D984D8B7D8A7D986
##D988D981D8A7
##D983D8A7D981D8ADD8A9
D8A7D984D8A3D8AFD8A7D8A1
D8A7D984D8B5D8A7D984D8AD
##D8A3D983D8AF
D8B4D98AD8AE
D985D8A7D8B2
D988D8A8D8AFD8A3
##D986D988D8A8
D8A7D984D985D8B3D8AAD8B4D8A7D8B1
D8A8D983D8ABD98AD8B1
##D8AAD8A8D987
D8B1D8A7D985
D8B4D983D8B1D8A7
D8A7D984D8AAD8AED984D8B5
D8A7D984D8AAD8B9D8A8D98AD8B1
D8A7D984D982D988D985D98A
D986D8AE
D8A7D984D8B3D98AD8B3D98A
D8A7D984D982D98AD985D8A9
##D988D98AD985
D985D988D8AC
##D8AAD985D98A
D985D986D98A
D8A7D984D985D8B1D8B4D8AD
D988D98AD8ACD8A8
D8A7D984D986D8ACD985
D8AFD8B9D988D8A9
D8B1D981
D8A7D984D8B9D8B8D98AD985
D8A7D984D985D8B9D8B1D981D8A9
##D986D8B3D989
D981D8B5
D8A7D982D8AAD8B1
D8A7D984D8A8D8B9
##D8B2D98AD8A7D8A1
D8A7D984D8AAD983D986D988D984D988D8ACD98AD8A7
D8A7D984D985D8B1D98AD8B6
D8A7D984D8AFD981D8B9
D8A7D984D8B3D988D98AD8B3
D8AAD988D982D98AD8B9
D8AAD8B3D8B9D989
D988D98AD981
##D8B6D8B1D988D8B1D8A9
##D8B4D8B3D8AAD8B1
D8A7D984D8B4D98AD8A1
D8B9D985D98A
##D8AAD982D984
D8A7D984D8B7D988
##D8AED8AF
D8A7D984D8AAD8B5D985D98AD985
##6564
D8AAD8B9D8B1D98AD981
D8A7D984D985D984D981D8A7D8AA
D985D8B1D8A8D8B9
D8A8D8ACD8A7D986D8A8
D988D8A7D984D8A3D8B3
D8A7D984D8AAD8B7D8A8D98AD982D8A7D8AA
##D981D98AD8AFD8A9
D984D982D8A8
D8A7D984D8AFD8A7D8AED984
##D8A7D8A6D8B7
D988D987D989
D8A7D984D8A5D8B5D984D8A7D8AD
D8A7D984D8ACD985D8A7D8B9D8A9
D8A3D8B8D987D8B1
##D8A7D8B1D98AD988
D98AD8AAD986
D8AFD8B1D8ACD8A7D8AA
D8A7D984D8B1D982D985
D8A7D984D986D987D8A7D8A6D98AD8A9
D8A3D8ACD8B2D8A7D8A1
D988D987D983D8B0D8A7
##D98AD8B3D8A7D986
D8A7D984D8AFD987D988D986
D985D981D987D988D985
D8A7D984D984D987D985
D8A7D984D8A2D8B3D98A
D8B3D8B9D988D8AFD98A
D8AAD8B1D983D98AD8A8
##D8AED98AD8B1
##D8AAD8ABD985D8A7D8B1
D985D8B1D8AA
D8A7D984D8AFD8B9D988D8A9
D8A7D8A8D8B1
D8AAD986D8B2D98AD984
D984D8B4D8B1D983D8A9
##D984D8A6D983
D8A8D8A7D984D8B5D988D8B1
D8A7D984D982D8B1D8A7D8A1D8A9
##D984D8B4
D981D8A6D8A9
D8A7D984D8A3D8B1D8AC
D985D8ACD8A7D984D8A7D8AA
##D8AAD8ACD8A7D8A8D8A9
##D987D8B2D8A9
D988D8A7D8ADD8AFD8A7
D985D8B3D8A7D8B9D8AFD8A9
D8A7D984D8AAD8A7D8A8D8B9
##D984D982D8A7D8AA
##D8AAD983D8A7D8B1
D8A7D982D8B1D8A3
D988D8AAD8A8
D985D8B5D984D8ADD8A9
D8AAD982D98AD98AD985
D8ACD8B2D8A1D8A7
D981D8B4D984
##D8ABD8A8D8AA
D8B0D98A
D8A7D984D985D988D8B8D981D98AD986
D8AED8B2
##D8AAD8B1D8A7D988D8AD
D984D984D985D8B9
D8A7D984D985D8B1D8B6D989
##D985D988D986
D8A7D984D985D987D986D98AD8A9
##D8B9D984D8A7D985
D8A7D984D8B1D8A3D8B3
D8AFD8A7
D8A7D984D8A8D988
D8B9D8AC
D8A7D984D983D981
D8B9D984D985D8A7D8A1
D8A7D984D8B2D8B1D8A7D8B9D8A9
D985D8AAD989
D8B5D8ADD98AD8A9
D985D8B3D8B1D8AD
D8B9D8A7D985D984
343030
D8AAD8B9D8A7D986D98A
D985D8B1D8A7D8ADD984
D8A7D984D8A5D8AD
D8A7D984D985D984D983D98AD8A9
D984D984D8A3D8B7D981D8A7D984
##D8B4D8A7D8A8
##D988D8AAD987
D8B9D98A
D8A7D984D981D986D8A7D986D8A9
D8A5D985D8A7
D8A7D984D985D8B7D984D988D8A8D8A9
D986D98AD988D98AD988D8B1D983
D8AAD987D8AFD981
D8AAD8B0D983D8B1
D8A8D8B9D985D984
D8A7D984D985D8B1D983D8B2D98AD8A9
D8A7D984D8B0D987D8A7D8A8
D8A7D984D8A8D984D8AFD98AD8A9
D981D986D8AFD982
##D987D8B1D8A9
D984D8AAD982D8AFD98AD985
D8A7D984D8A5D98AD8B1D8A7D986D98AD8A9
D985D8B1D983
D8A8D8A7D984D985D8B9
##D8AAD8B1D988D984
##D8B6D985D8A7D985
D985D8ACD8A7D986D98AD8A9
##D984D981D98AD8A9
D983D8A7D984D8
D8AAD982D8A7D8B1D98AD8B1
D98AD8AED8B1D8AC
D988D985D8ADD985D8AF
##D986D8AC
D98AD8AAD8B7D984D8A8
D8A7D984D985D8B3D8AAD8ACD8AF
D8A7D8ABD986D98AD986
D985D98AD8AF
D8A7D8B3D8B1D8A7D8A6D98AD984
D981D8B1D8B9
D8A3D8B4D8A7D8B1
##D984D98AD984D8A9
D8A8D984D8AFD98AD8A9
D8A7D984D8B3D98AD8AFD8A9
D8ADD982D98AD982D98AD8A9
D98AD8B7D984D982
##D8B9D986
##D8B4D98AD8A9
D8A7D984D985D8ADD8AA
D8A3D8B9D8B1D981
D8A8D981D98AD8B1D988D8B3
D8A7D984D8B9D8A7D985D984D8A9
D98AD8AFD981D8B9
D985D985D8AAD8A7D8B2
##D8AFD8B1D8A7D8B3D8A9
D988D8A5D984D989
D8A7D984D8B1D988D8A7D98AD8A9
D988D982D8A8D984
D8AAD8AAD8B6D985D986
D8B9D985D984D987
D8AED984D981D98AD8A9
D981D8B1D98AD982D987
D8A8D985D8AB
D984D981D8AAD8B1D8A9
##D8B1D98AD8A8D98A
D8ABD982D8A7D981D8A9
D985D988D984
##D982D8A7D985D8A9
##D8A7D982D985
D988D983D8A3D986
##D8B7D8A7
##D8B2D987
##D8A7D981D8B3
##D988D8B9D98A
D8A8D985D986D8B7D982D8A9
##D8B4D989
D8A7D984D8B5D8ADD8A7D981D8A9
D8A7D984D8A5D8AFD8A7D8B1D98AD8A9
D8A3D986D981D8B3D987D985
D8AAD8AAD8B9D984D982
D981D98AD8B5D984
##D987D8AFD8A7D8A1
##D8A7D8B2D98AD8A9
D8A8D8A7D982D98A
##D8B0D98A
D8A5D8B2D8A7D984D8A9
D8A7D984D8A7D8BA
##D982D984D8A7D8A8
D8A3D988D984D989
D988D8A3D8B5D8A8D8AD
D8A7D986D8B9
D8A7D984D8A8D98AD8B9
D8A8D8A7D984D982D8B1D8A8
D985D8A7D8B1D983
D8AAD988D8A7D8B5D984
D8A2D8A8
D8A7D984D985D8AAD8AC
D8A7D984D988D8A7D982D8B9D8A9
D988D8A7D986D8A7
D8A7D984D8B3D981D98AD8B1
D981D8B1D8AF
##D8A6D986D8A7D981
##D8A7D986D8AF
D8ACD98AD8B4
D8A7D984D985D8B3D8A7D8B9D8AFD8A9
D8A7D984D8B5D986D8A7D8B9D8A9
D8A8D8A7D984D8B0D983D8B1
D984D8B9D8AFD985
D8A7D984D8B1D8B9D8A7D98AD8A9
D8A7D984D8B4D988D8B7
D982D8AFD985D8AA
##6973
D988D8B8D98AD981D8A9
D988D8A7D984D8A7D8B9
##D988D982D8B1
D8A3D98AD8A9
D8B2D988D8ACD8AAD987
D8BAD98AD8B1D987D8A7
D8A7D984D8B9D98AD8AF
##D8AAD8AFD8AED984
D8A7D984D985D8B5D986D8B9
D8ADD984D8A8
##D8ADD98AD984
D8ACD8B3
D8B3D986D988D98AD8A7
##D8AED98AD986
D8B9D982D988D8AF
##D8B9D984D8A7D986
D8A7D984D8B9D8A7D984D98AD8A9
##D8B7D8B9D985D8A9
D8ADD8B5D988D984
D8AAD8B5D8AFD8B1
D8AAD8AAD986
D8B9D8A7D8A6D984D8A9
D8A7D984D8B9D8ABD988D8B1
D8A7D984D985D8B7D8B1
D8B9D8A7D984D985D98AD8A9
##D8B3D8A8D988D983
D8A7D984D986D981D8B3D98AD8A9
D8B9D983D8B3
D8A7D984D8B4D8AFD98AD8AF
D8A7D8B1D8AAD983
D8A7D984D8A8D8B5
##D988D981D8A9
D8AFD8B9D8A7
D8AAD983D8B1
D8A7D984D8B3D8B1
D8A7D984D985D8A8D8A7D8B4D8B1
D985D988D8B1
D8AED8B1D988D8AC
D8ACD8A8D984
##D8B9D8AFD8AF
D985D8B5D8B1D98A
D8A7D984D8AED8A7D985D8B3D8A9
D8A7D984D8AFD8B1D8ACD8A9
D984D985D8B5
D8A7D984D986D8B3D8AED8A9
D985D986D8B5D988D8B1
D8A7D984D985D8A6D8A9
##D8ADD8AFD8A7D8AA
##D982D8B3
D8A7D984D8A7D985D8A7D8B1D8A7D8AA
D8AAD8A4D983D8AF
D8A7D984D985D988D8ACD988D8AF
##D8AAD8A7D8A8D8B9
D986D8A7D8B3
##D988D8A7D8B1D8A6
##D8B2D8A7D984
D985D8ABD98AD8B1
D988D984D981D8AA
D982D8B5D8B1
D8AAD8A8D8ADD8AB
##D8A7D8B2D986D8A9
##D8B6D98AD8A9
D985D8A7D984D983
D988D8A7D984D8AAD8B5
##D8B3D98AD8B7
##D8B9D8AFD8A7D985
D985D985D98AD8B2D8A9
D8AED984D8A7D984D987
##D8A8D987D8A7
D8B9D986D987D985
D8A7D984D8ADD8B1D98AD8B1D98A
D984D8AAD985
D8A7D984D8B3D985D8A7D8A1
##D8B1D988D8A7D8AA
D985D8A7D8A1
D8A7D984D8B1D988D8AD
##D988D8B3D98A
##6F74
##D988D8B3D8A9
D8B8D987D8B1D8AA
D8B9D988
D8A7D8B3D8B9D8A7D8B1
##D983D989
##D984D98AD982D8A7D8AA
##D8B1D8A8D988D984
##D8A8D8B1D8A7
D8A7D984D983D8A7D985D984
##D8A7D984D98AD8AF
D985D8B3D98AD8B1D8A9
D8A7D984D8AED8B7D988D8A9
D8A7D984D8A3D985D8A7D983D986
D8A7D984D8AAD982D984D98AD8AFD98AD8A9
D8A7D984D8B3D984D8A7D8AD
D8A7D984D8A3D987D8AFD8A7D981
D985D8B3D8AAD985D8B1
D8A7D984D984D98AD8A8D98A
D8B5D98AD8A7D986D8A9
D8A7D984D8A7D8B3D8AAD8AED8AFD8A7D985
##696E67
D8A7D984D8BAD8B1D981D8A9
D985D8A7D8B3
D986D8B8D985
D98AD8ADD982D982
D983D98AD984D988
D8A7D984D985D986D8A7D981D8B3D8A9
D988D8A7D984D8B3D984D8A7D985
##D8B1D983D8A7D986
D988D8ACD987D8A9
D8A7D984D8B3D98AD8A7D982
##D8A7D8AFD98AD8A7
D988D8A7D984D8AAD981
D988D8A7D984D8A7D8AD
D98AD8B6D985
D8ADD8B1D98AD8A9
##D8ADD8AFD8AF
D8A8D988D8A7D8A8D8A9
D8A3D988D8B3
D988D983D8B4D981
##D985D8A7D8B1D8B3D8A7D8AA
D8A3D986D986D98A
D8B7D8A8D8B9D8A7
D8A7D984D983D98AD985D98A
##D982D98AD8A8D8A9
D8A7D984D985D8AAD8B1
D8A7D984D8ADD8B1D985D98AD986
D8A7D984D986D988D988D98A
D8ACD8B1D98AD8AFD8A9
D8B3D98AD8AAD98A
##D8B9D984D988D985D8A7D8AA
D8BAD8B0
D8A7D984D985D8B3D98AD8AD
D988D8A7D984D8AAD8B4
D8B4D988
D8A8D8AFD98A
D8ACD8A8D987D8A9
D8A7D984D8B5D8BAD98AD8B1
##D8AFD988
D8B9D984D8A7D985D8A9
D985D8A8D8A7D8AFD8B1D8A9
D8A7D984D985D8B1D988D8B1
D984D984D8B6
D8A3D985D8A7D983D986
D8B3D988D8A1
D8A7D984D8A3D8AFD988D98AD8A9
D8A7D984D8A3D984D985D8A7D986D98A
D8A7D984D8B4D8A8D983D8A9
D985D8B9D986D8A7
##D982D8AFD98AD8B1
D8A5D8AB
D8B2D8A8
D988D8AAD8B7D988D98AD8B1
D8A3D984D8B9D8A7D8A8
D8A7D984D985D8AAD8B7
D8B5D8ADD981D98A
D988D8AAD8ADD8AFD98AD8AF
D8AAD8B3D985D8AD
D8A7D984D983D984D98AD8A9
D986D8B3D8A7D8A1
##D8B5D8AFD982
D98AD8B3D8A8D8A8
D8A7D984D8B5D8B9D8A8
D98AD984D8B9D8A8
D8A7D983D8AAD8B4D8A7D981
##D8AAD98AD8A7D984
D985D982D8AFD985
D8ADD982D98AD982D98A
##D8AAD8A7D8AF
##D8ADD8A7
D8A7D984D8ADD982D98AD982D98AD8A9
D8A7D984D985D986D8B5
##D8A7D986D8A7D8A9
D8B1D8A7D98A
##D986D8AFD8A7D8AA
D8A7D8AAD981D8A7D982D98AD8A9
##D8A7D8B9D98AD8AF
D8B7D8A8D98AD8A8
D8A3D988D986
D8ACD8AFD98AD8AFD8A7
D8B9D8B1D8A7D982
D8A7D984D985D8B3D8A4D988D984D98AD8A9
D984D98AD983D988D986
D8A7D984D8B4D8B9D988D8B1
D8B7D8A8D98AD8B9D8A9
##7878
D982D984D988D8A8
##D98AD986D988
D8A3D8B1D8AC
D8A7D984D8A7D8B3D8AAD981D8A7D8AFD8A9
D8AAD8B1D8AAD98AD8A8
##D98AD981D987
D8A7D984D8A3D8B3D8A7D8B3
##D8A7D987D986
D8A7D984D8A3D8B7D8A8D8A7D8A1
D984D984D8AB
D988D986D8B4D8B1
D8A7D8AAD8AED8B0
D8B5D8B9D8A8
D98AD8AAD8AC
##D8A7D8B7D8B9D8A9
D985D8ACD8AFD8AFD8A7
3333
D8B8D8A7D987D8B1D8A9
D8A7D984D983D8AAD8A7D8A8D8A9
D983D8A7D8A8
##6368
D8AAD8AED8AAD984D981
D8A5D984D983D8AAD8B1
D982D8B1D98AD8A8
D8A7D984D8A5D8B9D984D8A7D985D98A
D8AAD8ADD984D98AD984
D8A5D8B1D987D8A7D8A8
D984D984D8ACD985D98AD8B9
D8A7D984D8AED8B5D988D8B5
D8A7D984D981D8AAD98AD8A7D8AA
D8A7D984D985D8AFD989
D8A5D984
D8A7D984D8ADD8ACD985
D988D8B1D988
##696C
D985D8AED8B7D8B7
D985D984D8A7D8AD
D8A8D985D8B3D8AA
3438
D8B1D8A6D8A7D8B3D8A9
D8A8D8A7D984D8AAD8AD
D8A7D8B6D8A7D981D8A9
D8A7D984D98AD987D988D8AF
D8A7D984D8AAD8B1D8AC
##D988D8B3D98AD8B9
D8AAD982D984D98A
D8B5D981D982D8A9
D988D8A3D8AF
##D8A8D8AB
D8A7D984D982D986D8A7D8A9
D8AAD8AED8B1D8AC
##D8ACD984D98AD8B2D98AD8A9
D8A7D984D8B1D8B3D8A7D984D8A9
D98AD8B4D8A7D8B1D983
D8A7D984D985D988D8A7D981D982
D8AFD8B1D987D985
D985D988D8B6D8ADD8A7
D8B2D8A7D98AD8AF
D8A3D8B4D983D8A7D984
D8A3D8B3D8A7D8A8D98AD8B9
D98AD8AFD984
D988D982D8B9D8AA
##D8ADD984
D8ACD988D8B1D8AC
##D8A7D8B0D8AC
D8A3D8ACD986
D8A3D8B9D8B1D8A7D8B6
D8A7D8B5D8A8D8AD
D8AED8B7D8A3
D8A7D984D985D983D8B1
D98AD8B1D8BAD8A8
##D987D8A7D986
##D8B1D8A7D8A6D8A8
D8A7D984D8ADD8AFD8AB
D988D8A8D987
D8A7D984D985D8A8D8A7D8B1D983
D8B9D8ABD985D8A7D986
D8A7D984D8AAD8B1D8A7D8AB
D8A7D984D8B5D98A
D8A7D984D985D8A8D8A7D8B1D98AD8A7D8AA
D985D98AD8B1
D98AD8B1D8AF
D8A8D985D8ABD8A7D8A8D8A9
D985D8B3D8A7D8B1
D985D8B3D8A6
##D8AFD8B1D988D98AD8AF
D988D8AAD983
D98AD8B4D98AD8B1
D987D8B4
D8B2D8A7D984
D8A7D984D8B9D982D988D8A8D8A7D8AA
D988D98AD8AC
##D8A7D98AD981
D8A7D984D8B2D8B1D8A7D8B9D98AD8A9
##D8AAD982D8B1D8A7D8B1
##D98AD8B7D8A7D984D98AD8A7
D8B3D8A7D984D985
D8A2D8B0D8A7D8B1
D8A3D8AED8B1
D8A7D984D985D8ADD98AD8B7
D985D986D8A7D8B3D8A8
D8A8D8A8D8B9D8B6
##D8AAD983D985D8A7D984
##D98AD983D8A7
D8ADD8AAD98A
D8A7D984D8AAD8A3D985D98AD986
D8A7D984D985D8B4D987D8AF
D8A7D984D8AAD8B4D8B1D98A
D8A7D984D8B3D8B1D98AD8B9
##D8ACD8A7D987
D98AD982D8A7D984
##D8B1D983D987
D8A7D8B3D8AAD982D8A8D8A7D984
D982D988D989
D8B5D8A8D8A7D8ADD8A7
D8A7D984D8B9D8A7D8A6D984D8A9
##D8A7D983D987
D8A8D8B1D8B3
D8B5D8A7D8AD
##D8A7D8A6D983
D8A7D984D982D988D8A7D986D98AD986
D8B9D984D8A7D982D8A7D8AA
D8B9D984D8A7D982
D8AED8A7D8AFD985
D8A7D984D987D988D8A7D8AAD981
D8A7D984D8AAD8ACD8B1D8A8D8A9
##D8B7D98AD986
D986D8B4D8B1D8AA
D988D8AFD8B9D985
D8A8D8A7D984D8B1D98AD8A7D8B6
D8A7D984D8B3D988D8B1D98AD98AD986
##D988D98AD984D8A7
##D985D988D8AA
D8B7D8A8D98AD8B9D98AD8A9
D8BAD8B6
D8A7D984D8ACD984D8B3D8A9
D8A7D984D982D8B5D8A9
D8A5D8B5D984D8A7D8AD
D8B9D985D8A7D984
D8A7D984D8AED8B2
D984D8B9D985D984
D986D982D988D985
D98AD985D8AAD984D983
D985D8B3D8A7D8A8D982D8A9
##D988D8B2D98AD8B1
D985D988D8A7D982D981
D988D8A7D984D8AAD986D985D98AD8A9
D985D986D8AED981D8B6
##D981D98AD8B1
D8ACD8AFD988D984
D8A7D984D8A7D8B3D8AAD8B1D8A7D8AAD98AD8ACD98AD8A9
D8A7D984D988D983
D98AD8B3D8B9D989
D8A7D986D988D8A7D8B9
D985D8ADD8AFD8AFD8A9
##D985D8A7D8B7
D8A7D984D986D8A7D8AC
##D8AFD98AD988D987D8A7D8AA
D8A7D984D8ACD985D8A7D984
##D8A6D98AD986
D984D986D981D8B3
D8B5D8B1D8AD
##D8B0D984
D8AAD8A8D8AFD988
D984D8B6D985D8A7D986
D985D8B8
D981D8ADD8B5
D8AFD988D8B1D8A7
D988D8A7D984D985D987
D988D8A8D8ADD8B3D8A8
D8A5D981D8B1D98AD982D98AD8A7
D8A7D984D985D8A8D8A7D8AFD8B1D8A9
D985D8B7D984D8B9
D988D8B1D982D8A9
##D8B9D984D986
##D8B8D8A7D8AA
##D8B1D988D986
D8A7D984D985D8ADD985D988D984D8A9
D988D8A7
D8AFD981
D8A7D986D983
D8A3D985D988D8A7D984
##D985D8B2
D8AAD8B6D8B9
D988D8AAD982D8AFD98AD985
D8A7D984D985D8B4D8A7D8B1D983D98AD986
D984D8B3D986D8A9
D988D8B4D8AFD8AF
##D8A8D98AD8B9D8A9
D8B3D8A7D8AE
D8A7D984D8ACD985D8A7D987D98AD8B1
##D8B9D8B1D8B6
D8A7D984D8B9D8AFD988
D8B1D8B3D985D98AD8A9
D8AFD988D984D98AD8A9
##D8A8D988D8AA
D8ACD987D8AF
D8A5D8B1D8B3D8A7D984
D8A3D8B1D8A7D8AF
##D8AFD984
D983D988D984
D8A8D8AAD988
D8A7D984D8B3D984D8B9
D8A7D8B3D8AAD8B9D985D8A7D984
##D988D982D988D981
##D8A7D8A8D988D986
D8A7D984D988D8ADD98A
313934
D8AAD8A8D98AD986
D8B1D8B9D8A7D98AD8A9
D988D984D987D8B0D8A7
D8A7D984D8ADD985D8A7D98AD8A9
D988D8A3D985
D8B7D8B1D8A7D8A8
D981D988D984
##D8B7D984D8A7D8B9
D8A7D984D983D984D985D8A9
D8A7D984D8ACD985D98AD984D8A9
D984D984D8AAD8AC
D8A7D984D8B1D985D8A7D984
D8AAD8A4D8ABD8B1
D8A8D982D98AD8A9
D8A7D984D8B4D981
D985D8AFD98AD8B1D98AD8A9
D8A7D984D8A8D8B1D98AD8B7D8A7D986D98A
D8A8D985D8ADD8A7D981D8B8D8A9
D98AD8A4D8ABD8B1
D8A8D8A7D984D985D8B1
D8B7D8A7D8B1D982
##D8A7D8B7D98AD8A9
D8A7D984D8AAD98AD8A7D8B1
##D8B9D8AFD8A7D8AA
D8A7D984D982D98AD985
D8A7D984D985D983D8AA
##D986D8A7D987D8A7
3035
D984D985D8B3D8AA
D8B4D982
D98AD985D8B1
D8A5D8ACD985D8A7D984D98A
##D8B2D985D8A7D8AA
D8A8D8AAD8B4
D8A7D984D8B3D8ACD986
##D988D982D8AA
D8A7D984D8A5D8B1D987D8A7D8A8D98AD8A9
##D98AD8AFD98A
D8A7D984D8AAD8B2D8A7D985
32303036
D8A7D984D8B5D98AD8AF
##D8B8D989
D985D8A7D986D8B4D8B3D8AAD8B1
D984D8A7D98AD986
313935
D8A7D984D985D985D98AD8B2
D988D8AAD988
##D8B1D8A8D98AD986
##D8AFD8A7D8B9
D98AD981D8B9D984
D8A7D984D8B5D8B1
##D8AED8AAD8A8D8B1
D8ADD8B2D98AD8B1D8A7D986
D8B7D8A7D8A6D8B1D8A9
D985D8B3D8A4D988D984D98AD8A9
D985D8ADD984D98AD8A9
D8A7D984D8A3D8B3D986D8A7D986
D8B6D985
D8A7D984D8A7D988D8B1
D8B3D8AAD982
D8AFD98AD8B1
D8A7D984D8A7D8B3D984D8A7D985D98AD8A9
##D8A7D8BAD8A9
D8A7D984D8A5D986D8ACD984D98AD8B2D98A
D8AAD8B1D8BAD8A8
D984D8ADD982D988D982
##D986D98AD8A7D987D988
D986D8B9D8B1D981
D984D984D985D8B4D8A7D8B1D983D8A9
D98AD8AAD8B9D8B1D8B6
D8A7D984D984D8B0
D8A5D8BAD984D8A7D982
D8A8D984D8AFD8A9
##D985D98AD987
D98AD985D8A7D8B1
D984D8AAD988
D985D984D985
D8A7D984D988D8AB
D8B3D8AAD8AC
##D8A8D988D8B7
D985D8B1D8A7D8ACD8B9D8A9
D988D983D985D8A7
D8A7D8B3D8AAD98A
##D8A7D984D8AAD987
D8B3D984D8B7D8A9
D8A7D984D982D8B1D8A7D8B1D8A7D8AA
##D8A7D8B1D98AD986
##D987D8AC
##D8A7D8B3D8A8D8A7D8AA
##D8B9D981
D988D983D986
D8A7D984D8A2D8ABD8A7D8B1
##D8B3D8AAD98AD8B1
D8A7D984D985D985D8AAD8A7D8B2
D8AAD8AAD985D98AD8B2
D8B9D986D8AFD98A
32303030
D8A7D987D985
32303037
##D8A7D8B4D98A
D8B3D987D984D8A9
D8B3D981D8B1
D8A7D984D8AFD8B1D8A7D8B3D98A
D98AD986D8AAD8B8D8B1
D8A7D984D986D988D8B1
##D8A7D984D8B5
D8A3D981D983D8A7D8B1
D98AD8B7D984D8A8
D8A5D986D8B3
D8B3D984D8A7D8AD
D8A7D984D8A7D8B4D8AAD8B1D8A7D983
##6F6C
D8B7D987D8B1D8A7D986
##D8A7D983D8A8
##D8A7D983D98A
D8AAD987D8AFD98AD8AF
D988D8ADD8AFD987
##6167
D8AAD8B7D8A8D98AD982D8A7D8AA
D985D986D8A7D981D8B3D8A7D8AA
D8A7D984D8B9D8B4D8B1D98AD986
D8A8D8AAD982D8AFD98AD985
D8A7D984D982D8A7D8A6D985
D8B3D98AD8A7D982
D8AAD986D985D98AD8A9
##D983D8AAD988D8B1D8A9
D985D8A6D8A7D8AA
D8A7D984D8B4D8B9D988D8A8
##D985D984D98AD8A7D8AA
D985D988D8ACD988D8AFD8A9
3334
D8A7D984D8A5D8B9D984D8A7D985D98AD8A9
D8A8D8A7D984D985D8AF
D8A7D984D8B5D8AED988D8B1
D98AD985D986D8B9
D988D8A7D984D8AAD985
D8A7D984D8AED8B7D8A7D8A8
D8A5D8B4D8A7D8B1D8A9
D8ADD8A8D98AD8A8
D984D8ADD985D8A7D98AD8A9
D8A7D984D8AED985D8B3
D8A8D8A7D984D8A7D8B6
D8A7D984D8A3D8AED8B6D8B1
##D8A7D987D984
##D8A7D985D8B1D8A9
D8B9D8A7D984
D988D8B2D8B1D8A7D8A1
D8B4D8B9D8A8D98AD8A9
D8B3D8B1D98AD8B9
D8B1D8B3D8A7D8A6D984
D985D8B9D987D8AF
D98AD8AED8B5
D988D8A7D8ACD987
D985D984D8B9
D985D8B9D8B1D988D981
##D8AAD986D98A
D8A7D984D985D8B5D986D8B9D8A9
D984D984D985D8A4
##D8B0D8A7D8A8
D98AD8A3D8AED8B0
D8A7D984D8A3D8ADD8B2D8A7D8A8
##D984D8AAD982D98A
##D8A7D981D984
D988D8A3D8B4D8A7D8B1D8AA
D8A7D984D8A3D8B3D984D8ADD8A9
D8A3D8ACD985D984
D8B3D988D8B1D8A9
D8A7D984D8A3D8B1D8AFD986D98AD8A9
D8AAD8AAD8A8D8B9
D8A7D98AD8A7D985
##D981D8A7D984
##D8B2D988
D985D8AFD986
##D8A7D8A8D98AD8B1
##D8B3D985D8B9
##D984D8A7D986D8AF
D8A7D8B3D8AAD8AED8AFD8A7D985D987D8A7
##D8B1D988D8A8D8A7D8AA
D8B5D8B9D988D8A8D8A9
D8ACD988D8B2
D987D8B2
D8A7D984D983D8A7D985D984D8A9
D8A7D8B3D8AAD8B1D8A7D8AAD98AD8AC
D98AD983D8B4D981
D8A7D984D8A3D988D8B6D8A7D8B9
D8A3D982D8B1D8A8
D986D8B1D989
D8A7D984D8B5D98AD986D98A
##D8A8D8A7D8B1D98AD8A9
D8A3D985D8B1D98AD983D98A
D8A3D982D988D984
D8A7D984D98AD985D986D98AD8A9
D8A7D984D8A7D8B1D8AFD986
D8B1D8B5D98AD8AF
D8ADD98AD986D985D8A7
##D988D8A3
##D98AD986D8BA
D985D8AAD983
D985D984D981D8A7D8AA
D8A7D984D8AED8B7D988D8A7D8AA
D8AED8B7D8B7
D8B3D98AD8B3
##D985D8AC
D8AAD8B4D8B9D8B1
D8B4D8A4D988D986
D8A7D984D8A8D988D984
D8A8D988D8ACD988D8AF
D8A7D984D985D8B3D8AAD8AED8AFD985D98AD986
D98AD8AAD985D8AAD8B9
D985D8AAD8B3
D8A7D984D986D982D8A7D8B7
D8A7D988D986
##D8A7D8AFD8ABD8A7D8AA
##D987D984D8A9
D988D981D8AF
##D8BAD98AD8B1D8A7D8AA
D8A7D984D985D8A4D985D986D98AD986
D985D8B4D8A7D987D8AF
D8A7D984D8A5D8B3D8A8D8A7D986D98A
D8A7D984D98AD8A7D8A8D8A7D986
D8AED8A7D8B1D8ACD98AD8A9
D8A7D984D8A7D986D8AAD8AED8A7D8A8D98AD8A9
D8AAD8B3D984D98AD985
D985D988D8A7D8B7D986
D988D8B1D981D8B9
D8A7D984D8A3D981D983D8A7D8B1
D8AED8B7D8A7D8A8
##D988D8B9D8A7
D8A3D981D984D8A7D985
D8A7D984D8A7D8B9D984D8A7D985
D8A7D984D988D8B8D8A7D8A6D981
D8A7D984D985D981D8A7D988D8B6D8A7D8AA
D8B3D8ADD8A8
D8B3D8AAD8B9
D8A7D984D8A5D8B4D8A7D8B1D8A9
##D8B7D988D984D8A9
D8A7D986D98A
D985D986D8A7D8B2D984
D985D8ACD8A7D986D98A
D8A7D984D8A7D986D8AAD987D8A7D8A1
##D985D982
D8ADD8A7D985D984
D8A8D8A7D984D985D8AD
D8A8D8A7D984D8B2
##D8B1D8A7D8AF
##D98AD988D8B1
D8A7D984D8B4D987D98AD8AF
##D8A8D8A8
##D8A7D988D981
##D8A7D98AD8AAD987
D986D98AD8B3D8A7D986
D8B1D8A8D8B9
D988D985D8AA
D984D984D8B0
D8A7D98AD8B1D8A7D986
D8A7D984D8BAD8B1D8A8D98A
D8A8D8A7D984D984D8BAD8A9
D988D8B3D98AD984D8A9
D8A3D8AFD8A7D8A9
D8A7D984D8B2D8A8
##D8B1D8A8D8AA
##D985D8B1D8A7D8B6
D8A7D984D8A7D984D8AAD8B2D8A7D985
D98AD8B9D984D986
D8A7D984D8B4D8A7D985
D988D8B1D982
##D986D98AD987D8A7
D983D988D981
##696F6E
D981D8A7D984D985
D8A7D984D8ADD8A7D8AC
D8B9D98AD8B3D989
D8A7D984D985D986D8A7D8B2D984
D8A7D984D8AAD988D8A7D984D98A
D985D983D988D986
D8A7D984D8ACD987D8A9
D8A3D8B1D98AD8AF
D8A7D984D8A3D986D8B4D8B7D8A9
D8A7D984D8B3D988D8AFD8A7D8A1
D983D981D8B1
D8A7D984D8ACD98AD984
##D984D985D8A7D986D98AD8A9
D8A5D984D8BAD8A7D8A1
D982D8A7D8AFD8B1D8A9
D988D98AD983D988D986
##D8A8D989
D8A7D984D8B9D984
D8ADD8B3D8A7D8A8D8A7D8AA
D8B1D8B5D8AF
D8A8D8AAD8B1
D8AED8B7D988D8B7
D8A7D8AAD8B5D8A7D984
D8A7D984D8BAD98AD8B1
##D8A7D8ADD987
D985D98AD8AA
D8A7D984D8A3D981D8B1D8A7D8AF
D8A7D984D8A5D8ABD986D98AD986
D984D985D8B9D8B1D981D8A9
D8AAD8AAD8B1
D8A7D984D8AAD8A3D8ABD98AD8B1
D8A7D984D98AD985D986D98A
D8A7D984D8B9D985D98AD984
D8B9D8A7D8B1D98AD8A9
D98AD983D981D98A
##D985D988D8AD
D8ADD8AFD8AF
D984D8A7D8AE
D8B9D8A7D984D985D98AD8A7
D988D986D8AA
D8A7D984D8B1D8A8D98AD8B9
D981D8B4
D988D8B0D983D8B1D8AA
D985D8ACD985D988D8B9D8A7D8AA
D8A7D984D8A8D982
D8A7D984D982D985D8A9
D8A7D984D8B5D8ADD981
D986D988D8B9D98AD8A9
D8A7D984D8B5D8AFD8B1
D988D8A7D984D8B1D98A
##D8AAD8ADD8A7D986D8A7D8AA
D8A7D984D8A7D8B3D8AAD982D8B1D8A7D8B1
D988D8ADD8B3D8A8
3338
D8A7D984D983D988D98AD8AAD98A
D8A7D984D8B6D981D8A9
D984D98AD981D8B1D8A8D988D984
D8ADD8B1D8A7D8B1D8A9
D8A7D984D981D982D987
##D8B9D8AFD8A7D8AFD8A7D8AA
##7573
D8A7D984D8B1D8A4D98AD8A9
D8B7D8A8D982
##D8A7D8B1D8AAD987
##D988D8A7D8A8D8B7
D8A7D984D8ACD986D8A9
D8A7D984D8A5D986D8ACD984D98AD8B2D98AD8A9
D8A7D984D8B3D8A7D8ADD8A9
D982D8A7D8AFD8A9
D8A7D984D982D8B7D8A7D8B9D8A7D8AA
D8A8D8AAD8AC
3735
D8A7D984D8ADD8B6D988D8B1
D8A7D984D985D984D8B9D8A8
D8A3D985D8B1D8A7D8B6
D8A7D984D8A5D8B7D984D8A7D982
D985D986D8B3
D98AD8AAD985D983D986
##D984D8B9D8AA
D985D8B1D987
##D988D982D8A9
D987D985D8A7
D8A7D984D985D8B3D8AAD985D8B1
##D8AFD8AFD8A9
D8A8D8A7D984D8AAD986
D8AAD8ACD987D98AD8B2
D985D8AAD8ACD8B1
D8B2D988D8A7D8AC
D984D984D988D8B5D988D984
D985D982D8AFD985D8A9
D8A7D984D8A7D985D986
D8ADD8B0
D8A7D984D8AAD8ACD8A7D8B1
##D8B9D8AAD982D8AF
D8A7D984D8B5D8B1D981
##D8A7D983D8B1D8A9
D98AD8B9D8A7D986D988D986
D8B1D8A3D989
##D8AFD988D8AF
D8A8D985D8B4D8A7D8B1D983D8A9
##D981D8B9D8A7D984
##D982D988D8AF
D8A7D984D985D982D8A7D8A8D984
D8A8D985D8B4
D981D8A7D98A
D8A7D984D8B3D8A7D8AD
D8A7D8A8D8B1D8A7D987D98AD985
D8A3D986D8B4
D8AAD8B5D8B1D981
D8A7D984D8AFD8A8D984D988D985
D985D988D8A7D8B6D98AD8B9
D986D8ACD8AD
D988D8A7D8B9D8AAD8A8D8B1
##D981D98AD8AFD98AD988
D8A7D984D986D985
D986D982D988D984
D984D8AAD981
##D8AAD8ADD8A7D986
D8A7D984D981D8B6D8A7D8A1
D8A7D984D8AAD8AED8B7D98AD8B7
D983D8B4
D8A5D984D987
D984D8A8D986
D98AD8B9D8B1D8B6
D8AAD988D984
D8ABD985D986
D8A8D985D8B9D986D989
D986D8A7D981
##D8AFD8B1D8A7D8B3D8A7D8AA
D8A7D984D8B7D8A8D98AD8B9D8A9
##D8A7D8A8D8AAD8A9
D8A5D8B9D984D8A7D985
D984D984D981D8B1D98AD982
D8A5D8B6D8A7D981D98AD8A9
##D8A8D8A6D8A9
D8A7D984D988D981D8AF
D8A7D986D8AAD987D8AA
D8A7D984D986D987D8B6D8A9
##D988D8B6D989
D8AAD983D8B4D981
D8A7D984D8B5D986D8AFD988D982
D985D988D8B8D981
D8ACD98AD8B1
D988D982D8AFD985
D988D8B1D8AD
D8A3D8B3D987D985
##D8AAD8B5D8A7D8A8
D8AED981D8B6
D983D988D8B1D98AD8A7
##D8A8D8B9D8A7D8AF
D988D8A8D8B4
D983D8AAD8A7D8A8D987
D984D984D985D986D8AA
##D986D8A7D8B9
D98AD8B3D8AAD8ADD982
D986D8AAD986D98AD8A7D987D988
D981D8AE
D8A7D984D8B4D8AED8B5D98AD8A7D8AA
D8A7D984D985D8B4D8A7D987D8AF
##D982D98AD8AFD8A9
D8A7D984D8A7D98AD8B1
D985D986D987D985D8A7
##D8A3D985D984
3337
D8A7D984D988D8B9D98A
D8A7D984D987D988
D8B1D988D986
D8AAD984D982D989
D8A7D984D981D982D8B1
##D981D98AD8B2
D982D8A8D988D984
D984D984D985D988D8A7D8B7
##D8AAD98AD8B4
##D8B5D8A7D8B5
D982D984D982
D8AFD981D8A7D8B9
D8A3D8A8D986
D8A7D984D8A7D8A8D8AAD8AF
D8B9D8A8D8AFD8A7D984D8B1D8AD
D8A7D984D985D8B3D8AAD987D984D983
##D988D982D8B9D8A9
D8AED8A8D8B1D8A7D8A1
D8B1D8B6
D981D98AD8B3D8A8D988D983
D8A7D984D8B1D982D985D98AD8A9
D988D8A8D986D8A7D8A1
##D983D8B1D985
D988D98AD8A8
D8A7D984D8B1D8A8D8B9
##D8A7D8B2D8A9
D986D8B3D98A
D8A7D984D8B9D985D988D985D98AD8A9
D8B9D8B4D8A7D986
D8A7D984D8A3D8AB
##D8A7D8B6D8AD
##D985D988D8B2
##D8A7D8B6D984
D982D98AD8AF
D98AD985D983D986D986D8A7
D98AD8B9D8B7D98A
D988D8A7D984D8A7D985
D985D8B4D8AAD8B1D983
##D8AAD985D983D986
##D8ACD8A7D8B2D8A7D8AA
D985D8A7D983D98AD986D8A9
D984D8AAD983D988D986
D8B3D8AAD8AD
D8A3D8B1D8AFD988D8BAD8A7D986
D8A7D984D8B9D984D8A7D985D8A9
D8AAD8A3D983D98AD8AF
##D8AFD988D8B2
D8A7D986D8AAD8AE
##D8B2D988D986
D985D8B3D8ADD988D982
D988D8A3D983D8AFD8AA
##6F77
D8AAD985D984D983
D8B7D8A8D98AD8A9
313530
D8A7D984D985D98A
D8A7D984D8AED8A8D8B1D8A7D8A1
##D8B1D8A8D988D986
D8A7D984D8A8D8AE
D8A7D984D8A7D8B3D984D8A7D985
D8AAD8AAD8AC
D8A7D984D8A8D988D8B1
##D986D985
D8A7D984D981D983D8B1D8A9
D984D8A7D986D987
##D8B3D984D8A7D985
D8A7D984D985D8B5D8A7D8A8D98AD986
D8A7D984D8A5D98AD985D8A7D986
D98AD988D981
D8A7D984D986D8AE
D8A7D984D985D8ADD8A7D981D8B8D8A7D8AA
D8A7D982D8AAD8B5D8A7D8AFD98AD8A9
D8A8D982D8AFD8B1
D8B3D984D8A8
D983D8B1D98AD8B3D8AA
D8A7D984D981D8AAD8A7D8A9
D8A7D984D8AED8B7D8A9
D8A7D984D8AED984D8A7D98AD8A7
D988D8B7D986D98AD8A9
D8A7D984D8A5D98AD8B7D8A7D984D98A
D988D8ACD8B9D984
D986D988D985
##D8AED8B5D8A9
D8A7D984D8B1D8A6D8A7D8B3D8A9
D988D8A7D984D8AFD987
D988D8B2D98AD8A7D8AFD8A9
D8A7D984D8A7D8B3D8AAD8B4
D985D8B1D988
D8A7D984D8AAD8ADD8AFD98AD8A7D8AA
D8A7D984D8B2D98AD8A7D8B1D8A9
D8A8D8A7D984D985D8A7D8A6D8A9
##D985D98AD98AD8B2
D8A7D984D8AED8B7D988D8B7
D988D8AED984D8A7D984
D8A3D8B3D984D988D8A8
D983D8A7D981
D8A7D984D8A2D98AD8A9
D988D8A2D8AED8B1
D8AAD985D8AAD984D983
D8A7D984D8AAD8AFD8AED984
D8A3D986D8B8D985D8A9
D8A7D984D8A7D8ADD8AAD8AC
##D8A7D8B6D8B1D8A9
D8A7D984D8A3D981D984D8A7D985
D98AD8AAD8B6D985D986
D8A7D984D983D986D98AD8B3D8A9
D985D8B1D8B4D8AD
D8AFD98AD985
##D8A7D988D8B1D8A9
##D8B1D98AD987
D8BAD8B3D984
D8B7D8B1D8A7D8A8D984D8B3
D8B1D8A8D8B7
D8A7D984D8B4D8AED8B5D98A
D988D8AED8B5D988D8B5D8A7
D8A7D984D986D8AC
D985D8B1D8A7D982D8A8D8A9
D984D984D985D988
D8A7D984D986D981D8B3D98A
D8A7D984D983D8A8D8A7D8B1
D8A7D984D8B7D8B1D981D98AD986
D8A7D984D8A7D8B1D8B6
D8A7D984D986D98AD984
##D8A7D984D8A7D9
D8AAD983D988D98AD986
D8ACD8B2D98AD8B1D8A9
D8A7D984D8A3D986D8AFD98AD8A9
D8A7D984D8ADD981D984
##D8B9D984D987
D8A7D984D8ACD985D98AD984
D8A8D98AD8A6D8A9
D985D8B9D8B1D983D8A9
D8B1D8B3D988D985
##D8A7D8B3D98AD985D8A7
D8B9D986D8AFD987
D8A7D984D8ADD985D8B1D8A7D8A1
D8A7D985D8AAD8AF
D988D8A7D984D98A
D8A7D984D987D8B1
D8A7D984D8A8D982D8A7D8A1
D984D985D986D8B9
D988D8A8D98A
D8A7D984D985D8A3
D988D8A3D985D8A7
D8A3D985D986D98AD8A9
D8A3D8B3D8AAD8A7D8B0
D8AAD8A3D985D98AD986
D8A3D8A8D988D8A7D8A8
##D8A8D8B3
D8A8D8ACD8A7D985D8B9D8A9
D8A7D8B9D8AAD982D8A7D984
D8A7D8AED8AAD984D8A7D981
##D984D988D8AB
D8A7D984D8A7D8ADD8AF
D8A8D8B7D984
##D8BAD8B7D98A
D8A8D8A7D98A
D8A7D984D8AAD8AED8B5D8B5
D8AAD984D982D98A
D981D982D8AFD8A7D986
##D8AAD8B5D8AFD8B1
D8AAD983D8B3
D8B9D986D8B5D8B1
##D8AAD8AA
D8A7D8AAD8A8D8A7D8B9
D8B4D8B1D981
D8A7D984D8AAD8B9D8B1D981
##D988D8ACD8A8
D986D981D8B0
##D8A7D8B1D98AD8A7
D8A3D8B9D8AAD982D8AF
##D8B5D984D8AA
##D988D981D8B1D8A9
D8A7D984D8AED8A8D8B1D8A9
D8A7D984D987D8ACD8B1D8A9
D8B3D985D98A
D8A7D984D988D983D8A7D984D8A9
##D8A7D8AFD98AD8AB
D8B5D981D8B1
D8A3D8B3D8B1
D8A7D8AAD987
D8A7D984D8B9D988D8A7D985D984
##D8A7D8A1D8A7D8AA
D8B9D984D8A7D985D8A7D8AA
D8A7D984D8A3D982D8B5D989
D8A7D984D985D8AAD8A7D8ADD8A9
D8AAD8A8D8A7D8AFD984
##D8AAD8B1D981D98AD986
D8B9D988D8AF
D8ADD984D982D8A9
D8B0D8A7
D8ABD8A7D986D98AD8A7
D983D8A3D986
D8A7D984D985D8AED8AFD8B1D8A7D8AA
D8AAD8B4D98A
D8A8D988D8B6D8B9
D988D8B7D984D8A8
D8A7D984D982D985D8B1
D986D8B1D98AD8AF
D8AAD8AED8B5D8B5
D8A7D984D8A8D8B1D8AAD8BA
D8A7D986D8B7D984D982
D984D984D8AAD8B5
##D8B3D98AD8AF
D8A8D985D988D8ACD8A8
D8A7D984D985D8AED8A7D8B7D8B1
D8B5D8B9D8A8D8A9
D984D8A7D8ADD982D8A7
D988D8A7D984D8AAD8B3
##D988D8B7D986
D8B2D98AD8A7D8B1
##D8A7D985D986D8A9
##D981D8B4
D8ADD8B8D8B1
##D8ACD98AD986
D987D986D8AF
D8BAD8A7D98AD8A9
D984D8ADD985
D8A7D984D8B1D8A7D8ADD984
D8A8D8A7D8B4
D8A7D984D8A3D988
D8A8D8B3D98AD8B7
D987D8A7D8AA
D8A7D984D8B4D8B1D98AD981D98AD986
D985D8AFD8A7D8B1D8B3
D98AD8B4D987D8AF
D988D982D8A7D985
D8A3D8B4D8B1
D8A8D8A7D984D8AAD8A3D983D98AD8AF
D8A7D984D8AED988D981
D8A7D8B9D985D8A7D984
D8A7D984D982D986D988D8A7D8AA
D8A8D8A7D984D985D8A6D8A9
D8AAD985D988D8B2
##6179
D98AD8AFD8B9D988
D8B3D8AAD98A
D985D986D8B5D8A8
D8ABD8A7D986
D981D8AF
D8A7D984D8B7D8A7D8A6D981
D985D982D8B7D8B9
D8A3D985D988D8B1
3037
D8AAD8A3D8AED8B0
D8A7D984D8B4D8A3D986
D8A7D984D985D8B1D8A7D983D8B2
D8A7D984D8B1D8B3D985
##D982D98AD987
D8ADD8B8
##D984D8B3D981D8A9
D8A7D984D982D8A7D8B6D98A
D988D98AD8B9D8AAD8A8D8B1
D8A3D988D8B1D8A7D982
##D8B1D98AD8B6D8A9
D8A3D8AED98AD8B1D8A7
D8A7D984D8A7D8A6
D8B3D8A7D8ADD8A9
D985D988D8B3D983D988
D8A7D8B3D8AAD8AF
D985D8A8D8AFD8A3
D8ABD982D8A9
##D986D8B3D8A7D986
##D8A7D98AD8AAD8AF
##D984D8A7D984D8A7D8AA
D98AD986D8B8D8B1
D981D98AD987D985
D8AAD981D8B9D98AD984
##D8B4D8A7D8B7
D8ADD8A7D985
D8B3D982D8B7
D98AD983D8AAD8A8
##D8A7D98AD986D8A9
D8A7D984D8B3D984D985
##6578
D8A7D984D985D8A4D984D981
D8ACD8B1D98AD985D8A9
D985D8B9D98A
D8A7D984D8ADD8A7D983D985
D8A7D8ADD8AAD8B1
D8A3D8B0
##D8B9D988D8A9
D8A7D984D8B9D8A7D8A6
D8A8D8A7D8AD
D984D98AD8B9
##D8A7D8ACD98A
##D8B1D988D8B1D98AD8A9
D988D8AAD8ADD982D98AD982
D8ACD8B1D8A7D8A6D985
D8A2D984D98AD8A9
D98AD8ACD985D8B9
D8A7D984D983D8B1D8AF
D8A7D984D8B1D8A7D8A6D8B9D8A9
D98AD8AED8AAD984D981
D8A8D8ADD8B1
##D988D8B3D8A7D8A6D984
D8A8D985D8ACD8B1D8AF
D8A7D984D985D986D8A7D8AE
D8A7D984D8B3D988D8AFD8A7D986D98A
D8ACD986D8B3
D985D981D8A7D8AC
D8A7D984D985D8B7D8A7D984D8A8
D8A7D984D8ADD983D988D985D98A
D8A7D984D8AAD985D988D98AD984
D8A3D8B9D8AFD8A7D8AF
D8A7D984D8AFD98AD985D982D8B1D8A7D8B7D98A
D8A7D984D988D984D8A7D8AFD8A9
D8ACD985D987D988D8B1D98AD8A9
D984D8B9D984D8A7D8AC
D8A8D8A7D982
D8AAD8B9D8A7D988D986
##D8B7D986D8A8D988D984
D8A7D984D8A3D8B3D8A6D984D8A9
##D983D98AD985
D8A7D984D8B1D8B3D988D985
##D8A7D984D981D8A7D8AA
##D8A8D8B1D8AA
D984D984D8B9D8A7D985
##D8B1D8A7D8AAD98AD8AC
D8AAD8B3D98A
D988D985D982
D8A7D984D985D983D988D986D8A7D8AA
D8A7D984D8A8D984D8A7D8B3D8AAD98A
D988D8A3D988D8B6D8ADD8AA
D8A8D8A7D984D8B7D8A8D8B9
##D8A7D981D984D8A9
D8B2D8A7D984D8AA
D8A7D984D8AAD987D8A7D8A8
D8A8D8A7D8B3D8AAD985D8B1D8A7D8B1
##D8A7D8A6D982D8A9
D8AAD8ADD8A7D988D984
D985D8AAD8B2
##D8A7D8A7D9
D988D986D8B5D981
D8ACD988D984D8A9
D8A7D984D8AAD8B5D988D98AD8B1
D8A7D986D8AAD8A7D8AC
D98AD8AFD98A
D988D8A7D984D8A7D8ACD8AAD985D8A7D8B9D98AD8A9
##D8B3D8A8D8A7D986D98AD8A7
D8AAD982D8AFD98AD8B1
D8A7D984D981D8B1D8B5
D8AAD982D984
##D8B3D983D8B3
D8A7D984D8B4D8B1D988D8B7
D98AD988D985D98AD986
D8A7D984D8ACD8B1D98AD985D8A9
D986D8B8D8B1D8A9
D8AAD8ACD986D8A8
D8A8D8A7D984D8A7D8B6D8A7D981D8A9
##D8AAD981D8A7D8A1
##D8B1D98AD8B7D8A9
##D8AFD98AD8A7D986
D8A7D984D8AED8A7D8B1D8ACD98A
D981D986D98AD8A9
D8A8D8A7D984D987
D8AED8B7D98AD8B1D8A9
D8A7D984D8AAD8ADD8AAD98AD8A9
##D98AD8B4D8A9
D8A7D984D984D8ADD8B8D8A9
D8A7D984D8B9D986D8A7D98AD8A9
##D8B1D8A7D981
D988D984D98AD8AF
D8A7D8B3D8AAD8BAD984D8A7D984
D8AED8A8D8B1D8A9
D988D8A7D8AF
D988D982D988D8B9
D8B3D98AD984
D8A7D984D8B3D981D8A7D8B1D8A9
D8A7D984D983D988
D985D987D8A7D8B1D8A7D8AA
##D985D8A8D98A
D8A7D8B3D8AAD8ABD985D8A7D8B1
D8A8D8A7D984D8B1D8BAD985
D8A7D984D982D8A7D8A6D8AF
D8A7D984D985D8B9D8A7D8AFD986
##6162
D8B1D8A7D8B4D8AF
D8B9D8B3
D8A7D984D985D8B3D8A7D8A8D982D8A9
##D988D8B1D98AD986
D8AAD986D8B4
D8A7D984D985D8ACD985D988D8B9D8A7D8AA
D8A7D984D8AFD985D8A7D8BA
D988D8A7D984D981D8B1
D985D985D8AB
D98AD981D8B6D984
D8A7D984D985D8ACD8AAD985D8B9D8A7D8AA
D8A7D984D8B0D8A7D8AAD98AD8A9
D8B3D8A7D8A8D982D8A9
D984D8AAD8B7D988D98AD8B1
D8A7D984D985D8B9D8A7D8B1D8B6
D8A3D98AD987D8A7
D984D8AAD8A3
D8BAD8AF
D8A7D984D8AAD8A7D8B3D8B9
D985D8A4D982D8AA
D8A8D8A5D985D983D8A7D986
D984D984D8AAD8B3
D8A7D984D8ACD8A8D987D8A9
D8A7D984D8A7D8B7D981D8A7D984
313433
D8A7D984D985D986D8B8D985D8A7D8AA
D8B1D8A7D8B3
D983D8A8D8B1D989
##D984D983D985
##D8A7D98AD8B4
##D8ABD98AD984
D98AD8AAD985D98AD8B2
D8A3D982D8AFD985
D8AAD8B5D986D98AD981
D8A7D984D8B4D988D8A7D8B1D8B9
D8AAD8A8D8B1
##D8A7D8A4D987
D982D985D8AA
D8A8D8AFD988D8B1D987
D8B4D8B1D8A7D8A6
D8A8D8A7D984D8B9D985D984
D984D8AAD8AE
D8B5D8AFD988D8B1
D981D8B6D984
D983D985D8A7D984
##D98AD988D981
D984D8A5D8B9D8A7D8AFD8A9
D985D8B9D983
##D8B1D988D983
D8AFD988D986D8A7D984D8AF
##D8A7D8AFD8AAD987D8A7
##D981D981
D988D981D98AD985D8A7
##D987D988D984
3535
D8A7D984D8B3D8A7D8AFD8B3D8A9
D982D8A7D984D988D8A7
##D8B7D8A7D8A8
D8A8D984D8AFD8A7D986
##D988D986D98AD8A7
##303030
D8A8D8AFD8B9D985
##D8AAD8B8D8A7D8B1
D8A3D982D988D989
32303035
D988D8B7D986
D8B1D985D8B2
D8B1D8BAD8A8D8A9
##D989D8A1
D8A7D984D985D8B0
D98AD984
D988D8A7D984D8B9D8A7D984D985
D8B1D8BA
D988D988D981D982D8A7
D985D988D8A8
D8A3D8B9D984D985
##D8B8D8A7D987D8B1D98AD986
D8B9D8A7D984D98A
##D986D988D8A7D8AA
D8A7D984D985D982D8B1
D8AAD8ACD8AFD98AD8AF
D8A7D984D8B1D8A7D8A8D8B7
D8BAD8B1D98AD8A8
D8A7D984D985D8B3D984D8B3D984
D8A7D984D981D988D984
D8B2D8A7D8AF
##D8A7D983D8B1
D8B3D8AD
D8A7D984D8A7D8B1D987D8A7D8A8
D8A7D984D8A7D8AED98AD8B1D8A9
D985D8ACD985D8B9
##D8A7D989
D8AAD988D8A7D8ACD8AF
D8A8D8B3D8B9D8B1
##D8BAD8B1D982
D8A7D984D986D987D8A7D8B1
D8A5D986D8AA
D984D8A7D8B3D8AA
##D8AFD8B1D8A7D986
D8B4D8AFD98AD8AFD8A9
D983D8B1D8AF
D8A7D984D8AAD988D8ACD987
D8A5D98AD8ACD8A7D8AF
D984D985D8ACD984D8B3
D8A7D984D8ACD8B2D8A7D8A6D8B1D98AD8A9
D8B2D988D8ACD8A9
D8A7D984D8B4D8AAD8A7D8A1
D984D984D8AFD988D984D8A9
D8B5D984D8A9
D985D8B7D984D988D8A8
D988D8B9D985D984
##D8A7D8AAD985
D8A5D984D98AD983
##D8ADD98AD8AF
##D8B9D98AD8AFD8A9
##D8B1D986D8A7D985D8AC
D8A7D984D985D8B3D8A6
D98AD982D988D8AF
D985D8A8D8B1
##D8A7D8ACD987D8A7D8AA
D8A7D984D8ADD984D988D984
D8A7D986D8AAD987D989
D8B9D985D8B1D987
D8A8D8A7D8AAD8ACD8A7D987
D8B1D8A7D981
D985D8B3D8ACD8AF
D988D985D8A8
D8A7D984D8A3D988D8B1D8A7D982
D8A7D984D8B9D8B1D988D8B6
D985D8B5D986
D988D8ADD8AFD8A7D8AA
D987D8AFD981D8A7
D8A7D984D8AAD985D8B1
D8A7D984D8A7D982D8AAD8B1
D8AAD8AFD8B9D985
D8A7D984D8B5D8B9D98AD8AF
##D8AED8AFD8A7D985
D8B3D983D8B1
D8B1D8A6D98AD8B3D8A7
D8A8D8B6D8B1D988D8B1D8A9
D8A7D984D8AAD986D981D98AD8B0D98AD8A9
D8A7D984D8ACD986D8B3D98A
D8AAD985D98AD8B2
D8A7D984D981D8A6D8A9
D988D8ACD985D98AD8B9
D984D8AB
D988D8AAD8B9D8B2D98AD8B2
D8A7D984D8AAD8B7D988D8B1
##D8ADD8AFD8A7D8AB
D8A7D984D985D8B3D98AD8ADD98A
D8B9D984D985D98AD8A9
D8A7D984D8AAD8ACD985D8B9
D8AAD8ACD8A7D8B1D98AD8A9
D8AFD8B3D8AA
D8A8D8A8D8B7
3038
D8A7D984D8A3D8B7D8B9D985D8A9
D8A7D984D8B5D8A7D8AFD8B1
##D8B1D981D98A
##D8B9D988D8AFD98AD8A9
D8AAD988D981D98A
D981D98AD983
D988D8AAD8B9D8A7D984D989
D985D988D8AA
D8A7D984D985D985D98AD8B2D8A9
D8A7D985D8B1
D982D98AD8A7D8B3
D98AD982D981
3033
##D8A7D8A8D8B1D8A7D8AA
D8A7D984D985D8B3D8AAD8ABD985D8B1D98AD986
D8A7D984D8B9D988
D983D988D981D98AD8AF
D8A7D984D981D986D8AFD982
D8A8D8B1D8B5D98AD8AF
D98AD8AAD982
D8B1D98AD8A7D8B6
D8A3D982D8B5D989
D8B3D988D8B1D98A
D98AD8AFD8B9D985
##D8A7D8AFD98AD982
D8A5D98AD8B7D8A7D984D98AD8A7
D8A8D8ACD985D98AD8B9
D986D8B6
##D985D8A7D8AA
##D983D988D98AD986
D8A3D8AED98A
D8A3D8ADD983D8A7D985
D985D982D8A7D988D985D8A9
##D987D8B1D8A7D8AA
D8A3D8B1D8A7D8B6D98A
##D8A7D987D8A9
##6E7878
D8A7D984D985D8ADD8AAD984D8A9
##D8B1D8B7D988D985
D98AD987D985
##D98AD8B1D8A7D8AF
##D8A6D8A7D8A8
D8B4D985D8B3
D8A7D984D982D8B7D8B1D98A
D8A7D984D8A8D8AFD8A1
##D98AD985D8A7D8AA
D8B4D982D98AD982
D983D988D983
##D981D987
D988D8B6D8B9D8AA
D8A7D984D8B7D988D98AD984
D8A3D8B3D8B1D8A9
##D8AAD987D984D8A7D983
D985D8A8D986D989
D8ACD985D984D8A9
D8B9D8A8D8AFD8A7D984D8B1D8ADD985D986
D988D8A7D8AFD98A
D8A8D8A5D986
D988D8B1D8B3
D984D984D985D8AF
D98AD988D986D8A7D98AD8AAD8AF
##D8B3D8A7D8B7D8A9
##D8BAD8A7D986D8B3D8AAD8A7D986
##D8B1D8A8D8A7D8AA
D98AD8B4D8A7D8B1
D985D8ADD8B1D983
D8A7D984D8ACD986D988D8A8D98A
##D985D8ABD984
##D8B7D988D8A7D986
##D8A7D8A4D987D8A7
D8A7D984D984D98AD8A8D98AD8A9
D8A7D984D8A7D8B3D8A8D988D8B9
##D984D8ACD8A3
##D8B5D98AD8A9
D8A7D984D8B3D98AD986D985D8A7
D8A3D8B5D988D984
D8A7D984D985D8B3D8A7D8B9D8AFD8A7D8AA
D8AFD8AED984D8AA
D985D8B1D981
D8A7D984D986D8B5D981
D8A8D8A7D8B1D983
##D987D8A7D8B2
D8ADD8AC
D8B3D98AD8AD
D981D8ADD8B3D8A8
D981D8A5D986D987D8A7
D8A7D984D8B5D987D98AD988D986D98A
D8A7D984D8A3D984D988D8A7D986
D8A7D984D8A7D986D981
D8A7D986D987D985
D8A7D984D8ADD98AD988D98AD8A9
##D8A7D988D8A7D8A9
D8A8D8A7D984D8A7
D8B0D8A7D8AAD987D8A7
D8A3D8ABD8A8D8AA
##D983D8B3D984
##D8A7D8A7D8
D8A7D985D8AA
##D8BAD988
D98AD988D985D98A
D8A7D984D8B4D987D98AD8B1
D985D8B1D8AAD98AD986
D8A5D8B0D986
D8A7D984D8A3D8AED984D8A7D982
##7269
D986D8A7D8B4
##D982D8AFD8A7D985
D984D984D8ADD981D8A7D8B8
D8A7D984D8B8D987D8B1
D8A8D8AAD983
##D8B8D98AD985D8A9
D8A7D8B3D8AAD987D8AFD981
D8A7D984D8A7D8A8D8A7D8ADD98AD8A9
##D8B7D8A8D982
D8A7D8ADD8AAD8B1D8A7D985
D8B6D8AED985D8A9
D986D983D988D986
##D8B5D98AD8B1
D8AAD985D8A7D985
D8ACD984D8A7D984
D985D8ADD8A7D988D984D8A7D8AA
D988D8A7D984D8A3D986
D8A7D984D8B4D8B1D98AD8B9D8A9
D986D8B1
D8A7D984D985D98AD984D8A7D8AF
D8AAD8B9D986D98A
D8A7D984D8B4D987D8AFD8A7D8A1
##D8AAD8B6
D8B3D8A7D8B9D8AF
##D8B2D8AA
D8B1D988D98AD8AAD8B1
##D984D8AAD8B2D985
D8A7D984D8B7D988D8A7D8B1D8A6
D8A7D984D8AAD8B2
D8B5D8B9D98AD8AF
D8A8D8B4D8AFD8A9
D8A7D984D8B4D8ADD986
D985D8B3D8AAD8B9
D8A8D8AFD988D8B1
##D8AAD8B3D8A7D8A8
D8A3D988D8A8D8A7D985D8A7
D988D8AAD988D981D98AD8B1
D8A7D984D986D8AF
D985D8B3D8AAD985D8B1D8A9
D8ADD984D988
D981D8ACD8B1
D985D8B2D8AF
D8A7D984D8A3D985D984
D8A7D984D8A7D8B9D8AAD985D8A7D8AF
##D8A7D8A6D981D8A9
##D8AAD988D983
##D984D98AD985D8A9
D8B3D8A8D8B9D8A9
D988D8A7D984D8AED8AFD985D8A7D8AA
D988D983D8B0D8A7
D8AAD8B0
D8B3D8B1D98AD8B9D8A9
##D983D8A7D986D98AD8A7D8AA
D8A7D984D985D986D8A7D985
D8A7D984D8AFD8A7D8A6D8B1D8A9
##D98AD986D98AD8A7
D8A7D984D982D8B6D8A7D8A6D98AD8A9
D8A7D984D984D8ACD988D8A1
##D982D8A7D8A8
D8A7D984D8ADD984D985
##D8A7D984D98AD981
##D8A8D988D8B1
D8ADD8AFD98AD8ABD8A9
D8AAD8B1D8AFD8AF
D8A7D8ADD8AAD98AD8A7D8ACD8A7D8AA
D8B3D984
D8AAD8A7D8A8D8B9D8A9
D8A7D984D8A3D8B3D985D8A7D8A1
##D8ACD8A7D8AA
##D988D985D987
D8A7D984D8B2D8ACD8A7D8AC
D8AAD8AAD8B7D984D8A8
D8A7D984D8AFD8AED984
D8A7D984D8A7D8AED8B1D989
D985D8B9D8AFD984D8A7D8AA
##D8B7D8A7D8B9D985
D8A7D984D8A7D8B1D8A8D8B9
##D8A8D986
##D984D982D8A7
##D8A8D8B7D8A7D984
D8A7D984D985D988D8A7D8B6D98AD8B9
##D8A7D8B7D984
D8A3D984
D8AFD8B1D8B3
D98AD8AAD98AD8AD
D986D987D8B1
##D8B5D8AFD982D8A7D8A1
D988D8A7D984D8A3D8AE
D984D8A7D8B9D8A8D98A
##D8B1D988D8A7D8AD
D8A7D984D8A3D8AFD8A8
##D8A7D8B9D98AD8A7D8AA
D984D985D8AF
D98AD8B4D985D984
##D985D98AD8AF
D8A2D985D986
##D8A7D982D8B6
D8A7D984D986D8ADD8A7D8B3
##D8AAD8B1D985
D8B9D985D988D985D8A7
D8B4D983D8B1
##D8A6D988D986
D98AD8B7D8A7D984D8A8
D8A3D8B3D8B1D8B9
D8A7D984D982D8B1D98AD8A9
3339
##D8A4D8AFD98A
D8A7D984D983D988D98AD8AAD98AD8A9
##D984D98AD987D8A7
D986D985D8B7
D988D985D984
D8B1D988D98AD8AAD8B1D8B2
D8A3D8B5D98AD8A8
3432
##D987D8A7D8AF
D8A8D986D8B8D8A7D985
D982D986D988D8A7D8AA
D8A7D984D983D8AB
D8A7D984D988D8ADD98AD8AFD8A9
##D8B1D8A8D987
##D8A7D8B3D983
##D8A7D8B9D984
D8A8D8B4D8A7D8B1
D8A3D985D98A
D8A7D984D8A7D8B2
##D8B1D98AD8B4
##D8AAD982D8A7D8A1
D8A8D8AFD984
D8B3D987D984
D8A7D984D981D8A7D8A6D8AFD8A9
D8A7D984D985D988D8AC
##D8ADD98AD8A7D8A1
D8A7D984D985D8AAD8AED8B5D8B5D8A9
D8ADD8A8D98A
D984D985D983D8A7D981D8ADD8A9
D8A7D984D8B9D8AFD988D8A7D986
D985D982D8A7D984
D985D8B1D8AD
D8A7D984D8AAD988D986D8B3D98AD8A9
D994
D8A7D984D985D988D8B3D98AD982D989
D8AFD8A7D8A6D985
D8A5D8B3D985D8A7D8B9D98AD984
D8AAD985D988D98AD984
##D8AAD8B2D8A7D8B2
D8A7D984D985D8B7D8A8D8AE
##D986D988
D8A3D986D98A
D98AD8AAD8A3
D8B3D8AF
D8AAD8AED8B5D98AD8B5
##D8ABD984D8A7D8AB
D8A3D984D8A8
D98AD8AAD8ACD8A7D988D8B2
D8A7D8ABD986D8A7D8A1
D8A7D984D984D98AD984D8A9
D8AAD982D8AFD8B1
D8A7D984D981D98AD8B3
D988D8B9D984D985
D8B3D8AE
D8A7D984D8AFD983D8AAD988D8B1D8A9
D8A7D984D8ACD988D98A
##D986D8AAD987D8A7
D8A7D984D8ABD982D98AD984D8A9
D981D988D8B1D983D8B3
D8A8D8A2
D988D8A3D986D8AA
D984D8A7D982
D8A7D984D981D984
D982D98AD984
D8B9D988D8A7D985D984
D8A8D8A7D984D985D8B3
##D8A7D8ACD8A7
D98AD987D8AFD981
D8A7D986D8AAD982D8A7D984
D988D8A7D984D8A3D985D986
##D8A7D983D8B3
D8A3D985D8B1D8A7
##D8AFD98AD8B3
##D984D8B3D8A7D986
D8AAD8B9D8A8D98AD8B1
D983D988D986D987
D8B3D98AD986D8A7D8A1
D8A7D984D8B4D983
D8AAD8ADD8A8
D8A7D984D985D98AD8AF
D8A7D984D8A3D8B9D8B1D8A7D8B6
D8A7D984D8AFD8A7D8B1
##D8A7D984D982
D988D8A7D984D8A7D8AE
D8A7D984D8A3D8B1D8AFD986D98A
D8A7D984D8B1D8B3D8A7D8A6D984
D985D8B9D8B1D981
D8A3D8B3D988D8A7D982
D8A7D984D985D8AED8B1D8AC
D8A7D984D8A3D8B5D988D984
D98AD982D8A8D984
D988D8B9D8B1D8B6
D985D986D8B8D988D985D8A9
D8AAD985D983D986D8AA
D988D8A7D984D8B0D98AD986
##D8A7D981D987
D8B9D8AFD986
D8A7D984D985D8AFD986D98AD98AD986
D8A7D984D8A3D8ABD8B1
D986D8B3D8AE
D985D986D8A7D982D8B4D8A9
##D98AD984D988D984
##D981D8B1D8A9
D8B5D981D8AD
D8A7D984D8AFD988D8A7D8A1
##D8AAD98AD8A7D8B2
##D8A7D8A1D8A9
D985D8AED8A7D8B7D8B1
##D8BAD8A7
D981D98AD8AAD8A7D985D98AD986
D8A7D984D8AAD8B5D988D98AD8AA
D983D8A7D8B3
D8A7D984D8B4D987D98AD8B1D8A9
D8AAD8B9D8B1D8B6D8AA
##D8AAD8B5D981D8AD
##D8B1D8A7D8B1D98AD8A9
D8A3D8B3D985
D8AAD8AAD985D8AAD8B9
##D8AFD98AD8A7D984
D8A7D984D8AED8B7D8A3
D983D987
D8A3D8B3D8A7D8B3D98A
D981D98AD8B3
D984D984D8A3D985D985
D988D982D98A
D985D8ADD8A7D8B1D985
D988D8A7D984D985D8AE
D8A7D984D8AAD986D8B3D98AD982
D8A7D984D8A3D986D8A8D8A7D8A1
D8A7D984D8A5D984D987
D983D985D98AD8A7D8AA
##6961
D985D8B9D8B3D983D8B1
D8A7D984D8AAD988D8B5D984
D8A7D984D8B5D984D8A8
D8AED984D98AD984
D984D984D8A2
D8A7D984D8B9D982D988D8AF
D8B1D98AD981
##D8B7D98AD8A8
D8A7D984D8B5D986D8A7D8B9D98A
D8A5D8AFD8B1
D98AD8ADD98AD989
##D8A8D8A7D986
D8A7D984D985D8B9D987D8AF
D8A7D984D8B7D8A7D8A6D8B1D8A7D8AA
D98AD8AAD988D982D8B9
D8A7D984D8B5D8ADD8B1D8A7D8A1
D8A7D984D8ADD985D8A7D985
D988D8A7D8B3D8AAD8B9
D8A7D984D8B9D8ABD985
D8A7D984D988D8B3D8A7D8A6D984
D8B3D987D985
##D98AD8AFD987
D8A7D984D8BAD8B0D8A7D8A1
D8A7D984D8A7D8B9D8AAD8A8D8A7D8B1
##D98AD8ACD8A7
##D8B9D8AFD984
##D8A7D8B1D987D8A7
D985D8B3D98A
D988D8AAD982D8AFD985
D8A7D984D988D8ADD8AFD8A7D8AA
D985D8B5D98AD8B1
D8A7D984D8A5D8ACD8AAD985D8A7D8B9
D8A7D984D985D8ADD8AAD988D989
##D8B2D98AD8A7
D985D8B4D8AAD8B1D983D8A9
D8A7D984D8B3D8B1D8B9D8A9
D8A7D984D8BAD8B0D8A7D8A6D98A
D8A7D984D982D984D98AD984D8A9
D8A7D984D8A3D988D984D98AD8A9
D8A8D8A7D985
D8B3D98AD8AFD8A9
D8A7D984D8AAD988D8AAD8B1
D982D8A7D8A8D984
D984D8AAD986D981D98AD8B0
D8AED8B4
D988D8A7D984D8A3D8AF
##D8A7D8B3D989
##D8A7D8B6D8B9
D8A3D8B3D988D8AF
D8A7D984D8B9D98AD8B4
##D8A7D985D984D98AD986
D982D8B6D8A7D8A1
##D8B8D986
D984D984D8B4D8A8D8A7D8A8
D8A7D984D988D8A7D8AC
D988D8A7D986D8AA
D8A7D984D8AAD8ACD985
D8A7D984D8B2D98A
D8A7D984D985D988D8B1
D8A7D984D985D8B9D984D985
D8ACD8A7D983
D8A7D984D8AED98AD8B1D98AD8A9
##D8A7D8B7D986
D8B2D985D8A7D986
D983D8A7D981D98AD8A9
##D8A7D8B5D8A8
D8A7D984D985D985D8ABD984
##D983D98AD984D8A9
D984D8B1D8A6D98AD8B3
D985D8B4D98AD8B1D8A9
##D8A7D8AFD98AD985D98A
##D983D983
##D982D8AFD8A9
D8A7D8B3D8AAD982D8B1D8A7D8B1
D983D986D8AFD8A7
##D988D984D988D8ACD98AD8A9
##D983D8AAD8A7D8A8D8A9
D8A7D984D985D988D8A7D982D981
D8A7D984D986D8A7D8ADD98AD8A9
D8ADD98AD986D987D8A7
D8A7D984D8B4D983D8B1
##D98AD8B1D988
D8ABD986D8A7D8A6D98A
##D8AFD8A7D985D8A9
D981D986D8ADD986
##D988D8B9D8A7D8AA
D8A3D8B3D981D984
D8AAD8A3D8ACD98AD984
D984D985D988
##D8A7D8ACD8B1D98AD986
##D8A3D989
D8A7D984D985D8B9D986D989
D8A8D8B5D981
D985D8B3D984D8AD
D8A7D984D8B2D98AD8AAD988D986
D8A7D984D8B3D988D98AD8AF
D8AAD8B3D984D985
D8B4D985
D8A8D8A7D984D988
D8A7D984D8AFD8B3D8AAD988D8B1D98AD8A9
##D984D8A7D98AD986
D8A7D984D8B1D982D8A7D8A8D8A9
D987D8B4D8A7D985
D984D8A3D8ADD8AF
D988D8B2D98AD8B1D8A9
D8AAD8AFD981D8B9
##D8B3D8AAD8A7D986D98A
##D8BAD8B1D8A7D8B6
D8A7D984D982D984D982
D8A7D989
D982D988D8A7D986D98AD986
D8A7D984D8AFD8B1D8A7D8B3D98AD8A9
D8A7D984D8A7D8AAD8AD
D8A7D984D8AAD986D8B8D98AD981
D8A7D984D8B3D984D8A7D985D8A9
D8A7D984D8B9D8A7D8AFD98AD8A9
D8AFD98AD981
D8A7D984D8A7D8AFD8A7D8B1D8A9
D987D8A7D98A
D988D8A7D8B7
D8A7D984D985D8B9D8AFD8A9
D8A7D984D8AAD8B9D984D985
D8A7D984D985D8AED8AAD8B5D8A9
3039
D985D986D981
D8AED8B7D988D8B1D8A9
D8A7D984D8B1D985D984
D98AD8AAD8B1D983
D985D8B4D8A7D8B9D8B1
D981D987D986D8A7D983
D987D988D984
D987D988D8A7D8AAD981
D982D8A7D8A8D984D8A9
D985D8B5D8A7D986D8B9
D8A7D984D8B4D8A7D8B1D982D8A9
D8B3D984D988D983
##D8AAD985D984D8A9
##D8ACD8A7D985
D8A7D984D986D8A7D8AAD8AC
D8B9D8B2D984
D8AAD982D8A8D984
D985D8B3D8AAD982D8A8
D983D8AAD984D8A9
D988D8B3D8ACD984
##D984D8AED8B5
##D8AAD983D985
D8A7D984D985D8B3D8AAD8B9
D984D8ADD984
D8AAD8B3D8AAD985D8B1
D8A7D984D985D8B3D8AAD8B4D981D98AD8A7D8AA
D988D983D98AD981D98AD8A9
##D8B3D98AD8B7D8A9
D988D985D8AE
D985D988D8B8
D8B0D983D8B1D989
D985D984D98AD8A7D8B1D8A7D8AA
D988D8AFD8B9D8A7
D8A7D984D8B9D985D984D8A9
D8A7D984D987D988D98AD8A9
D8A5D986D8B3D8A7D986
D98AD8AAD8B3
D8A7D984D985D8A8D984D8BA
D8B4D8B1D8B9
D988D984D8B9D984
D988D8A7D984D985D8A4D8B3D8B3D8A7D8AA
D8A8D8AFD982D8A9
##D8B5D8A7D984
D8AAD983D986D988D984D988D8ACD98AD8A7
D985D8AAD8A7D8A8D8B9
D8AAD8AAD8ACD8A7D988D8B2
D8ACD98AD984
D986D982D8AF
D8A7D984D8B3D98AD986D985
D98AD8AAD8A8
##D8A7D982D987
D8A7D984D8A3D986D8B8D985D8A9
D8A7D984D8AAD982D8A7D8B1D98AD8B1
D985D8B9D8A7D98AD98AD8B1
D984D984D8AAD988
D986D8B8D98AD8B1D987
D988D8A7D984D8B9D8B4D8B1D98AD986
D8A7D984D8A8D986D98AD8A9
D982D984D8A8D98A
##D984D98AD988D986
D8A7D984D8ADD8B4D8B1D8A7D8AA
D985D8ADD8B7D8A7D8AA
D8A7D984D8AFD98AD986D98A
D8A7D984D8A3D985D986D98A
##D8A7D984D984D987
##D8A7D8B1D8AFD8A9
##D98AD8AAD98AD986
D8B5D986D8B9D8A7D8A1
D8A7D984D8A3D8B2D987D8B1
D985D8AFD8B1
D984D8A7D8ADD8B8
D8AAD8ABD8A8D98AD8AA
##D984D8A7D8AF
D985D98AD8B2D8A9
D8AAD8AED981D98AD8B6
D8A7D984D8A5D8B7D8A7D8B1
3431
3635
D983D98AD984D988D985
D984D984D985D8B1D8A3D8A9
##D8AAD98AD988D8A8
D8A3D8B6D8A7D981
D988D98AD984
D8A7D984D8A7D986D8AAD982D8A7D984
D8A7D984D8A7D8B3D8B1D8A7D8A6D98AD984D98A
D8B9D8A7D8B5D985D8A9
D985D8AAD8AED8B5D8B5
D8A8D988D8B4
D8AAD8B9D8B7
D988D8ADD988D984
D8A7D984D8ACD98A
D8A7D984D8B1D8B4
##D98AD8B3D8B1
D8AAD8B4D8A7D8B1D983
D8A7D984D8A8D98AD8B6
D8A7D984D8ADD8B3D8A7D8A8
D988D8A5D8B9D8A7D8AFD8A9
##D8AAD987D989
D985D98AD984D8A7D986
D988D8A7D984D985D8ACD8AAD985D8B9
D988D8A7D8AB
D8A7D984D8A8D8B1D8A7D8B2D98AD984D98A
D8A7D984D8ABD8A7D985D986
D988D983D8AAD8A8
D8A7D984D985D986D8B2D984D98AD8A9
##D8A7D8B9D985D8A9
##D985D8A7D986D98AD8A9
D981D98AD986
##D988D8B1D988D986D8A7
D8A7D984D982D987D988D8A9
3434
D988D985D986D8B0
D985D8A7D98AD983
##D8A6D8B1
D8A7D984D986D8ACD988D985
D8A7D984D985D8B9D8B1D988D981D8A9
##D8A7D98AD8AAD987D8A7
D8A7D986D986D8A7
D985D981D8AAD988D8AD
D985D983D8AAD8A8D8A9
##D8ADD981
D8A7D984D8B4D985D8A7D984D98A
D8A7D984D985D8A7D8B6D989
D8A7D984D8A3D8ADD988D8A7D984
D988D8A7D984D8A5D8B3
D8A3D8AFD986D989
##6466
D8A5D98AD982D8A7D981
D8B5D8AFD98A
D8B1D988D985D8A7
D8A7D984D8A7D984D8
D8A7D984D8BAD8A7D984D8A8
D8A3D8AED8A8D8B1
##D8AFD8A7D8A8
##D984D985D8B3
D8A7D984D8B1D8A6D8A7D8B3D98AD8A9
D8ADD8A7D981D8B8
##D8A8D983
D8A3D988D984D8A6D983
D8A7D984D8B9D985D98A
D985D8AED8B5D8B5
##D8AED8A7D985
##D982D8A7D981D8A9
D8A7D984D8B1D8A7D8A6D8B9
D8A7D984D981D985
D8A7D984D985D8B8
D981D982D8B1
D8A5D8AFD984D8A8
D8A7D984D985D8B3D8A3D984D8A9
##D983D984D98A
##D8B3D8B1D8A7D8A6D98AD984
D8A7D984D8B3D8B1D8B7D8A7D986
D984D8AAD8B9D8B2D98AD8B2
D985D8A8D98AD8B9D8A7D8AA
##D8B4D8A7D981
D8AFD982D98AD982
D8A5D98AD8ACD8A7D8A8D98AD8A9
D8A7D984D986D988D988D98AD8A9
D8B3D985D98AD8B1
D8A7D984D984D982D8A8
D8A7D984D8AAD984D981D8B2D98AD988D986
D8A7D984D8B3D985D8A7D8AD
##D8B1D98AD8A7D986
D8A7D984D986D8A8D8A7D8AAD8A7D8AA
D8A3D98AD8AFD98A
D8ADD982D98AD8A8D8A9
D8A7D984D988D8A7D8B3
D985D988D8B6D8B9
##7572
D8A7D984D8A5D8B3D983D986D8AFD8B1D98AD8A9
##D8AAD8AED8A8D8A7D8B1D8A7D8AA
D8A7D984D8A7D8B9D8AAD8AFD8A7D8A1
D8A7D984D8B5D8A7D8AFD8B1D8A9
D8B4D8ADD986
##D8A7D8A8D98AD8A8
D8AAD981D8B9D984
D8A8D983D985
D985D8B9D8A7D984D98A
##D8A7D8A8D982D8A7D8AA
D98AD8B1D8ACD8B9
D988D8BAD98AD8B1D987D985
D8A7D984D8AFD8B1D8AFD8B4D8A9
D981D983D98AD981
D98AD982D8AFD8B1
D8AAD8B9D8AFD98AD986
##D988D981D98AD8A9
D8A7D986D8AAD8B8D8A7D8B1
D8A7D8B9D8AAD982
D8AED8B3D8A7D8A6D8B1
D8A3D8B3D8B3
##D8AAD981D8B9D8A9
##D98AD8AAD987D985
D8A7D984D8A7D984D983D8AAD8B1D988D986D98AD8A9
D987D986D8A7D984D983
32303033
##D8B1D98AD8A8D98AD8A9
D8A7D984D988D8A7D8ADD8AFD8A9
##D8B1D8A8D8B7
D8A7D984D8A7D8B3D8AAD981
D8A7D984D8B3D8A7D8A8D8B9D8A9
D8A7D8B9D984D8A7D986
D8B5D8B1D8A7D8B9
##D8A7D981D989
D8A7D984D985D8B4D8B1D988D8B9D8A7D8AA
##D8A3D8B3D98AD8B3
D985D985D8A7D8AB
D8B9D984D988D985
##D985D988D8B1
##D985D8AAD987
D8A7D984D8B3D8A7D8B9D8A7D8AA
D8AFD8A8
D8A7D984D985D983D8B1D985D8A9
D98AD988D8AAD98AD988D8A8
##D8B4D98AD981
D8B3D98AD8B7D8B1
D8AAD8B1D8ACD985D8A9
D8A7D984D988D982D988D8AF
D985D982D8A7D8A8D984D8A9
##D8AAD8B5D8A7D8AF
D984D981D8B1D98AD982
D8AED8B5D985
D8B2D985D984
##7070
D988D8AAD8B9D8AAD8A8D8B1
D8ADD8A7D8B1D8B3
##D988D985D98AD986
D984D984D985D8B5
##D8ABD989
D987D8A7D985D8B4
D8A7D984D985D8AAD981
##756E
D8B5D984
D988D984D98AD8B3D8AA
D8A7D984D98AD987D8A7
D8A8D8A8D8B1
D985D98AD8B4
D986D8B5D8A7D8A6D8AD
D8A7D984D985D982D8AFD8B3D8A9
##D8B0D98AD8B1
D8A3D98AD984D988D984
D8B3D985D988D987
D8AAD8ACD8B1D8A8
##D8B1D8B6D989
D8B4D8A8D8A7D8B7
D988D984D985D8A7
D988D8A7D984D8AAD8AE
D987D8A7
##D984D8A7D8AAD987
D8A7D984D985D8B1D8AD
##D985D8A6
D8A7D984D8AAD8B9D8B1D98AD981
##D8B3D8AAD8B1D8A7D984D98AD8A7
D8B3D8A7D985D8B3D988D986
D8A7D984D8B7D98AD8A8
D983D8A7D8AA
D8A7D984D982D8AAD984
D985D986D8B7
##D8ADD8B6D8B1
D8B3D8A8D8A7D982
D8AED8B3D8A7D8B1D8A9
D8A3D98AD8A7D8B1
##D986D8AAD988D8B3
D8A7D984D8AAD985D8AB
##D8A8D8A7D986D98A
D8A7D984D8A5D982D984D98AD985D98AD8A9
##D984D8A7D985D8AD
D8AFD8B1D8A7D8B3
D8A7D984D8B3D984D8B7D8A7D986
D8B4D8A7D985D984D8A9
D8A7D984D982D988D98AD8A9
##D98AD8B7D8B1D8A9
D984D98AD984
D98AD8B1D98AD8AFD988D986
D8A8D8AAD981
D984D8A8D986D8A7D8A1
D984D984D8A7D8AD
D984D8AED8AFD985D8A9
D8A7D984D8AAD8B3D988D98AD982
D8A3D8B7D8B1D8A7D981
3036
D988D8A7D984D8A8D8ADD8AB
##D8A8D98AD8A7D8A1
D8A7D984D8B1D8A7D8ADD8A9
D8AAD8B1D98A
D8B9D985D984D987D8A7
D988D8A7D8B3D8AAD8AED8AFD8A7D985
D8A7D984D8ACD8A7D987
##D8B4D98AD986
D8A7D984D98AD985D98AD986
D8A7D984D8A3D8AFD988D8A7D8AA
D988D8A7D984D985D984
D8A7D984D8B6D8B1D988D8B1D98A
D8A7D984D985D8B1D8AAD8A8D8A9
D8A7D984D8AFD985D988D98AD8A9
D8A7D984D8B3D984D8A8D98AD8A9
D986D8A7D982
D98AD8AAD981
##D985D98AD8A7D987
32303231
D983D988D986D987D8A7
##D8AAD981D8B9D8AA
D988D8AAD983D988D986
D8A7D8B3D8AAD8AED8AFD8A7D985D987
D984D8A3D983D8ABD8B1
##D986D8B2
D8AED8AFD985
D985D98AD983
D984D984D8A7D8AAD8ADD8A7D8AF
D8A7D984D982D988D985D98AD8A9
D8A7D984D8B3D983D8B1D98A
##D8B5D988D8B1
D8A7D984D8AAD8B9D8A7D982D8AF
D984D986D982D984
D8A7D986D982
##D8B6D8A7D8B1
D988D98AD8B9D8AF
D8A7D984D8AAD8B7D988D98AD8B1
D8A7D984D8A7D8B3D8AAD985D8B1D8A7D8B1
D8AAD8B1D983D98A
D8A7D984D982D988D985
D8AAD8AAD985D983D986
D98AD8B5D8AFD8B1
D8A3D8AFD8AA
D8A7D984D8B3D8A8D8B9
D985D8B3D8AAD8B4D8A7D8B1
D988D984D982D8AF
D986D8AAD8B9
D8A3D8B4D8B1D981
##D8B4D8AA
D8A7D984D8B1D8A4
D8A7D984D8A3D8B5D984D98A
D8A7D984D8A2D8B3D98AD988D98AD8A9
D8AFD988D985D8A7
##D8AAD985D8AFD8A9
##D986D98AD988D985
D8AAD8ADD8B1D983
D98AD8B4D8A8D987
##D988D8A7D987
D8AAD986D8AAD987D98A
##D983D8B3D8B1
D983D981D8A7D8A1D8A9
##D8A7D98AD987
D8A7D8B3D8AAD987D984D8A7D983
D984D984D8B1D8A6D98AD8B3
##D981D8A7D8B1
##D8B7D988D8B7
D8ADD8AFD98AD8ABD987
##D8AAD987D985D8A7
D988D98AD8AE
D98AD8B1D981D8B6
D8AAD8ACD8A7D8B1D8A8
D988D98AD8A3D8AAD98A
D983D8B3D8B1
D988D8A8D985D8A7
D981D8A7D8B7
D981D984D986
D8A8D8B5D981D8A9
D8A7D984D988D8B3D8B7D989
##D8A7D98AD8AFD8A9
##D8B1D8B7D8A9
D8A7D984D8ACD8BAD8B1
##D8BAD984D8A8
D8A8D8B9D98AD986
D8B4D987D988D8B1
D988D8A8D8B9D8AFD987D8A7
D985D8ADD98AD8B7
D8B9D8ACD8B2
D984D8A3D986D987D985
D8B2D98AD8AF
D8A7D984D8AAD8ADD982D98AD982D8A7D8AA
31303030
D8B9D98AD988D986
D8AAD8ADD983D985
D986D983
D8B5D981D8ADD8A7D8AA
D8B4D8A3D986D987D8A7
D988D8A2D984D987
D981D984D8B3D8B7D98AD986D98A
D8A7D984D985D8B3D8A7D8B1
D8A7D8B1D8B6
D8A3D8B9D8B7
##D982D98AD985D98AD986
D8AFD8B1D8A7D8B3D8A7D8AA
D8AAD987D985
D8A7D984D8ADD988D8ABD98A
D8B3D98AD8AFD98A
D981D986D98A
D984D984D8ADD983D988D985D8A9
D8A7D984D8AFD988D8ADD8A9
D8A8D984D8A7D8BA
D8A7D984D8A7D8B9D985D8A7D984
D984D988D8B2D8A7D8B1D8A9
D985D983D988D986D8A7D8AA
D8A7D984D8B4D8B1D8A7D8A1
##D8A7D986D983
##D984D986D8A7
D985D8B3D98AD8B1
##D983D98AD983
D8B9D98AD986D98A
D8A7D984D985D8B4D8B1
D984D984D8B3D98A
##D8ADD8AFD8A9
D988D8A8D8B0D984D983
D8A8D8A7D984D8A5D986
##D8B1D988D8B9D8A9
D98AD8B0D987D8A8
D8A7D8B3D8AAD985D8B1
##D8A7D984D8B7
D8A8D986D8ADD988
D984D984D8B5D8AD
D8B9D8A7D985D98AD986
D8A7D984D982D8B7D8B1D98AD8A9
D987D8A7D985D8A9
D98AD8B3D8AAD985D8B1
D985D8B0D987
##D8B4D98AD8A7
D988D8A7D984D8A3D8AD
D8A7D984D985D8B1D8AAD8A8D8B7D8A9
##D8AFD982D8A7D8A1
##D984D8B3D984D8A7D8AA
##D8A4D8A7D8AF
D8A7D984D8B5D8B9D8A8D8A9
D8B7D8A7D984D985D8A7
D8A7D984D8A7D8B3D8AAD8AD
D988D8A7D984D8AAD8A3
D988D8ADD985
D8A7D984D8B2D985D8A7D986
D984D984D8A7D8B9
D8A7D984D8B4D985
D983D8A7D8AAD8A8
D8A7D984D8A3D8B6
##D8A7D8AAD98AD8AD
D8A5D986D987D8A7D8A1
D8AFD8A7D981
##D8B9D988D8A7
D8A7D984D8ADD985D8A7D8B1
##3232
D8A5D8B7
D987D8B1D985
D8A7D984D8B5D988D985
D8A7D984D985D988D8A7D8ACD987D8A9
D8B4D8AED8B5D98AD8A7D8AA
D986D8A7D8A8
D8B4D8B1D98AD8B7
##D8A7D985D98AD985
D8A7D984D987D8A7D985D8A9
##D8AFD8A1
D8A8D8ADD984D988D984
D8A7D984D8AED984D98AD8ACD98AD8A9
D983D8B9
D8A7D984D982D8B0
D8A7D984D8AFD8A7D8A6D985
D981D984D985D8A7
D981D8A7D8B1D8B3
##D988D982D8A7D981
D987D8A7D8AF
##D982D8B1D8A7D8B7D98AD8A9
D8B2D8B1D8A7D8B9D8A9
D8A7D984D8AAD981D8A7D8B9
D8A8D8A7D984D985D986D8B7D982D8A9
D988D8A7D984D8A7D8A8
D8A7D8B3D8AAD8B9D8A7D8AFD8A9
D984D984D982D98AD8A7D985
##D8AAD982D8A8D8A7D984
##D8AED8A7D8A1
##D8B3D8A7D8AAD98AD986
D8AAD8AAD8ADD8AFD8AB
D8A7D984D987D985
D8AAD8ACD8B1D98A
D984D8AAD984D983
D988D8A8D986
D985D988D8A7D981D982D8A9
D8AAD8A8D8B9
D8A8D8A7D984D8AAD988
D988D8A7D984D8A8D8B1
##D8A7D987D8AC
D8A7D984D985D982D8A7D984D8A9
D988D8A7D984D8B0D989
D8AAD8AAD8B1D8A7D988D8AD
##D988D98AD981
D8AAD8AFD988D8B1
D8A7D984D8A7D985D8B1D98AD983D98AD8A9
D8A8D986D8AAD98AD8ACD8A9
D8AAD8AED8B2D98AD986
D8ADD8A7D8B3
##D984D8ADD982
D8ADD98AD8A7D8AAD983
D8A7D984D8B9D982D8A7D8B1D98A
D981D988D8B1D8A7
D984D985D8A4
##D988D986D8BA
D985D981D8AAD988D8ADD8A9
D8A7D98AD8AC
D8A7D984D8B5D8ADD98AD8ADD8A9
D8A7D984D985D8AAD8A3
D985D984D8A7D8ADD8B8D8A9
D985D988D8A7D8B5D984D8A9
D8A7D984D8ACD8A8D984
D8B3D8AAD986
D981D983D984
3433
D8AAD8B3D8AAD987D8AFD981
D981D8B1D8AD
D8AFD983D8AAD988D8B1
D98AD8AFD8B1D983
##D988D8AAD8A7
##D8A8D8B9D8A9
D8A7D984D8B4D98AD8B7D8A7D986
D988D987D985D8A7
D8A7D8ADD8AAD985D8A7D984
D8A7D984D8B0D8A7D983D8B1D8A9
##7562
##D8B9D985D8A7D8B1
D8A3D8BAD986D98AD8A9
D8A8D8A7D987
D8B4D8B1D8A8
D8A7D984D982D8AAD8A7D984
D8AAD8ADD8AFD8AF
D8A7D8AED8AAD98A
D988D8ADD98AD986
D8A7D984D8AAD8ACD8A7D8B1D8A8
##D984D983D98AD8A9
D8A7D984D8B4D8B1D982D98A
##D8B1D8A7D984
D985D983D8A7D981
D8A7D984D987D988D984
D8A7D984D8A7D984D983D8AAD8B1D988D986D98A
##D98AD8B1D988D986
##D8A7D8ACD8B3D8AAD98AD8B1
D985D8B7D8B9D985
##D8AAD985D8AAD8A7D8B9
D8A7D984D988D98AD8A8
D8A7D984D8A5D986D8B3D8A7D986D98A
D984D8AAD8ADD8AFD98AD8AF
D8A3D988D8AF
D8A7D984D982D8B7D8B9
D8A7D984D985D8B0D983D988D8B1D8A9
D984D98AD8B4
D8A8D8ACD8AF
D988D988D8B5D981
D8A7D8ACD8AAD985D8A7D8B9D98AD8A9
##D984D8A7D8B9D8A8
D982D8B5D98AD8B1
D8B2D8B9D98AD985
D8AED8A7D8B6
D8AFD8A7D985
D8ADD8B1D98A
D985D8B5D8B1D98AD8A9
D8A7D984D8B1D988D985
3032
D8A7D984D985D8B1D8AC
D8A7D984D8ABD8A7D985D986D8A9
D8AAD8B3D985D989
D8ACD987D8AAD987
D8A7D984D985D8B9D8AFD986D98AD8A9
##D984D981D8A7D8AA
##D98AD8B7D8A9
D8A7D984D988D8A7D8B6D8AD
D8B1D988D986D8A7D984D8AF
D988D8AAD8AAD985
D8A7D984D8BAD8B1
D8ACD987D8A7D8AA
D985D987D8A7D985
D8AAD984D8B9D8A8
323530
D8B9D8A7D8A6D984
D8A7D984D8B3D8A7D8AED986D8A9
D8A8D8A7D984D8AB
##D8B0D988D8B1
##D984D98AD8A7D981
D8A8D8A7D8AAD8AA
D8A3D8B5D8AFD982
D8B1D8A4D8B3D8A7D8A1
D984D8A7D8B2D985
D8A3D987D8A7D984D98A
D8A7D984D8ACD985D984D8A9
D985D982D8A7D8AA
D98AD982D988D984D988D986
D985D8B3D8AAD8AED8AFD985
##D988D98AD98AD986
D8A7D984D8AAD8B9D8A7D8AFD984
D8ABD985D8A9
D984D984D8A3D8B3
D8A8D8BAD98AD8B1
D8B4D8B1D8B7
D8A3D8B7D984D982D8AA
##D8B1D983D985
D8ACD8B1D8AA
D988D8A7D984D8AFD98A
D8A5D8AFD8AED8A7D984
D8A7D984D985D8B4D983D984D8A7D8AA
D8A7D984D8B3D98AD8A7D8B3D8A7D8AA
D981D8A7D984D8A3
D8A7D984D986D8ADD988
D8A7D984D8A3D8B4D987D8B1
D8A7D984D8B5D8ADD981D98AD98AD986
D985D8AAD8B7D984D8A8D8A7D8AA
D8A8D988D8B3
D981D986D8A7D986
##D8AFD8A3
D988D8B1D8B4D8A9
D988D8A7D8A8D986
D8A7D984D985D8AAD8B8D8A7D987D8B1D98AD986
D988D8AAD987
D983D8A7D985D98AD8B1D8A7
D8A7D984D8A5D986D8AA
D985D8ABD984D985D8A7
D8A7D984D8A7D8AAD981D8A7D982D98AD8A9
##6F73
D8B9D8A7D8B5
D984D8A7D8B9D8A8D98AD986
D8A7D8B9D8B1D981
##D985D8AD
##D8ACD8A7D8B9
##D8AAD98AD985
##D983D984D987
D8B3D8A7D8A6D982
D8A7D984D8ACD8A7D985D8B9D98A
##D8B1D988D8B3D98AD8A7
D988D8A7D984D8A5D986
D98AD985D8A7D8B1D8B3
D8A7D984D987D986D8AFD8B3D8A9
D8A7D984D8A2D984D8A7D981
##D984D8A7D8AAD987D8A7
D8A7D984D8A7D8B3D8AAD982D984D8A7D984
3034
D8A7D984D8B1D8BAD8A8D8A9
D8A7D984D8ACD985D8A7D8B9D8A7D8AA
D8A7D984D8A3D8ACD8A7D986D8A8
D8B3D8ACD984D8AA
##D8A7D984D987D8A7
D8B1D981D98A
D8B1D8A6D98AD8B3D8A9
D8AAD982D984D98AD984
D988D8AAD8B2
D98AD8B1D981D8B9
D8A7D984D8A3D8B3D985
##D8A8D8B1D8A7D8B7
D8A7D984D985D988D8A7D981D982D8A9
D985D8A4D983D8AFD8A9
D988D8A3D8AED98AD8B1D8A7
D8B5D8AFD982
D8A7D984D8A7D8B3D8AAD8ABD985D8A7D8B1D8A7D8AA
D988D8B3D986
D8A7D984D985D8AAD982D8AFD985D8A9
D8AAD8AFD981D982
32303034
D8AAD8ADD8A7D984D981
D8A7D984D8AED8B6D8B1D8A7D8A1
D985D8A8D8A7D984D8BA
##D8AAD985D8A7D8A1
##D982D8A7D8AF
D988D8B5D8B1
D985D8B1D98AD985
D988D981D8AAD8AD
D8A8D8A7D984D8AAD981
D8AAD982D981
D8A7D984D8A7D8ADD8AAD98AD8A7D8ACD8A7D8AA
D988D8AAD8B9D8AF
D8A3D8B3D8A6D984D8A9
D988D8B1D981D8B6
D8A7D984D8B3D8AA
D8A7D984D8A8D8B4D8B1D98A
D8A3D8ADD8B3D986
D988D8AED8A7D8B1D8AC
D8A3D8B1D8A8D8A7D8AD
##D8A7D8A4D984
D8A7D984D985D8B9D8B1D983D8A9
D981D8B1D98AD8AF
D8A3D8ABD8A7D8B1
D8AAD8AAD8B9D8B1D8B6
D8B3D8B9D8A7D8AFD8A9
D8BAD8B6D8A8
D981D8B3D98A
D988D8A7D984D8B9D8B1D8A7D982
##D983D8A7D8A9
3436
##D8AED8AFD985D98A
D8A8D8AFD8A1D8A7
##D8B1D8B9D8A7D98AD8A9
##D983D8AAD8A7D8A8
D8A8D8B2D98AD8A7D8B1D8A9
D8A7D984D8B9D8A8D8AF
D98AD8B6D985D986
D984D8A7D8AA
D8A7D984D986D985D988D8B0D8AC
##D981D98AD98AD986
D8A7D984D8A7D986D8AAD8A7D8AC
D8A7D984D8B4D8A7D98A
##D8AAD8B9D8A7D8AF
D8A5D986D987D985
##D987D8AFD8AA
##D988D8B6D98AD8AD
D8A7D984D8ACD8B1D8A7D8A6D985
##D988D8A7D8B1D8A7D8AA
D8A5D982D984D98AD985
D8B7D988D98AD984D8A7
D982D8A7D8A8
##D98AD986D98AD8A7D8AA
D988D8A7D984D8AAD983
D8A3D984D981D8A7
D8A7D984D983D8B3D8A7D8B1D8A7D8AA
D984D983D988D986
D8A7D984D8ADD984D98AD8A8
D8A7D8ADD8AFD8AB
D8B4D8A7D987
D988D8B9D984D98AD987
D8B1D8ADD985D8A9
##D8B2D98AD8B9
##D8A7D8B8D8B1
D8B9D988D986
D8A7D8B3D8AAD982D8A8D984
##D982D8AAD98AD986
D988D985D986D8B9
##7574
D8A5D984D98AD987D985
D8B7D8A7D982D8A9
D8A7D984D8B4D8A7D985D984
D8A7D984D8A7D8ADD8AAD981D8A7D984
D8A7D984D988D8ACD988D8AF
D8A7D984D8A3D8B1D8A8D8B9D8A9
##D8AAD98AD983
D8A7D984D8B4D8B1D8AC
D98AD8ADD8AFD8AF
##D8A7D8AFD982D8A9
D8B7D8B9D8A7D985
D982D8A8D98AD984
D8B1D988D8A8
D8ADD98AD8A7D8AAD987D985
D8B4D8A3D986D987
D8A7D984D8B9D985D98AD8AF
D8A7D982D8AAD8B5D8A7D8AF
D8A7D984D8B3D983D986D98AD8A9
D8AAD8B7D984D8A8
D8B3D98AD8B7D8B1D8A9
##D982D8A7D982
D8A7D984D8A7D8B3D985D986D8AA
D984D984D8B4D8B1D983D8A9
D8B0D983D8B1D987
D8A7D984D985D986D988D8B1D8A9
D8B4D8B1D98AD983
D98AD8B9D8B7
##D8A7D8AED8B1D8A9
D8A8D98AD988D8AA
D8B7D984D8A8D8A7D8AA
D8A7D984D8B8D8A7D987D8B1D8A9
D984D984D8AAD986D985D98AD8A9
3437
D981D984D98A
##D988D8B6D98AD8A9
D8A7D984D8A7D8B3D8AAD8B1
D8A3D8B3D981D8B1
D8A7D984D8ADD8A8D98AD8A8
D8A7D984D8B9D8B8D985
D982D8A7D986D988D986D98AD8A9
##D8B1D98AD8AE
D8A7D986D981D8ACD8A7D8B1
D8ABD985D8A7D986D98AD8A9
D984D8AAD988D981D98AD8B1
D98AD985D983D986D987
D984D8B2D98AD8A7D8AFD8A9
D8AFD988D984D8A7D8B1D8A7
##D8B4D8A7D8AA
D8B7D98AD8B2
D8ADD8AFD98AD982D8A9
##D8AAD8A8D8A7D983D8A7D8AA
D8B3D8B1D8B9
D984D8B9D8AFD8AF
D8B3D8AAD8B1
D8A8D98AD984
##D8BAD8B1D8A9
D988D8AFD98A
D8A8D8B9D8AFD8AF
D8A7D984D8A7D8B3D8AAD98A
D8B9D985D984D8AA
D8A7D984D8AAD987D8AFD98AD8AF
D8B4D98AD8B1
D8A7D984D985D981D8B1
D984D985D8B1
D984D8B3D8AA
D8A7D984D985D8B9D984D985D98AD986
##6F6E65
D8B6D8ADD8A7D98AD8A7
D985D98AD8B3D98A
##D987D989
D8A7D984D8B9D8A7D985D984
D8A8D982D988D984D987
D988D8A3D982
D8A7D984D981D8B1D98AD982D98AD986
##D8B7D988D984
##D8B1D8A8D8A7
D8A7D8B3D8AAD8AB
D8A8D8A7D983D8B3D8AAD8A7D986
##D985D8A7D8B9D8A9
3531
##D8B6D8A7D8A1D8A9
D984D984D985D988D8A7D8B7D986D98AD986
D8A7D984D8A7D8AED8AAD98AD8A7D8B1
D8A7D984D8A3D8AFD986D989
D988D985D8AC
D984D8A7D8B3D98AD985D8A7
D8A7D984D985D982D8B5
##D985D8ACD8A9
D8A3D8B3D8A7D8B3D98AD8A9
##D8B8D987D8A7D8B1
D8BAD8B6D988D986
##D8B7D8A7D982
##D981D8B1D8AF
D8A7D984D8AED8A8D8B2
D8A5D8B5D8A7D8A8
D983D8AAD8A8D8AA
D988D8A5D984D8A7
D8A7D984D8A8D8B1D8A7D8B2D98AD984
D8AAD8B9D8A7D985D984
D8A7D984D985D98AD983
##D985D8A7D986D98A
D8A7D984D8ACD8AFD8AF
D984D8A5D8AFD8A7D8B1D8A9
D8A3D8B9D988D8A7D985
##D98AD987D8A7
D988D982D8AAD987D8A7
D8A7D984D985D8AAD8B2
D988D8B9D984D98A
D988D8B4D8A7D8B1D983
D8A7D984D8A7D8AAD987
D8A7D984D981D8A7D8AA
D8A8D8AAD985
313230
D8B1D98AD985
D8A7D984D98AD988D985D98A
D8A7D984D8B1D8A8D8AD
##D8A6D8B0
706466
D8A8D986D981D8B3D987
##D8B1D8A7D8B9D8A9
##D8A7D986D98AD8AA
D988D8A7D984D8A7D982D8AAD8B5D8A7D8AFD98AD8A9
##D98AD981D988D986
D8A7D984D8A3D8B3D8B1
D8A7D984D8AAD988D8B5
D8B3D8ACD986
D988D8A7D8ACD8A8
D985D982D8B9D8AF
D988D8A8D8B4D983D984
D8A7D984D8ACD8A7D8A6D8B2D8A9
##D8AAD985D8B1D8A7D8AA
D8ADD984D981
D8A8D8A7D984D981D98AD8AFD98AD988
D8A7D984D8ADD8B8
##D8AAD987D8A7D8A8
D981D8B9D984D987
D984D8A7D983
D8A7D984D8ACD98AD8AF
D988D8ABD98AD982D8A9
D985D8ADD8AFD8AF
##D986D8A7D8B7
D985D8B3D8A7D981D8A9
D8AAD8AAD985D8ABD984
D985D988D8ACD8A9
D8ACD985D8A7D987D98AD8B1
D8A5D8AED8B1D8A7D8AC
D8A5D8B9D8B7D8A7D8A1
##D8B4D8AED8A7D8B5
##D98AD8B3D98AD8A7
D8A3D8B4D98AD8A7D8A1
D8A7D984D8B9D8A7D8AFD98A
D988D8AAD982D988D984
D8A7D984D985D982D8AFD8B3
D8A7D984D985D8A7D8A6D98AD8A9
D8AFD8A8D984D988D985
D8A7D984D8A8D8B7D986
##D8B5D8A7D8AA
D988D8B3D985
##D8B1D8AAD988D986
D8A7D984D981D8AAD8AD
D985D8AAD982
D8A7D984D981D8A7D8A6
D982D98AD8A7D8AFD8A7D8AA
D8A7D984D982D988D8A7D8B9D8AF
D8B3D986D8AA
D8A7D8B1D8AAD981D8B9
D8A7D984D986D8B4D8B1
D8AAD985D8A7D8B1D8B3
##D986D8A7D8A9
D984D984D8B4D8B9D8A8
D981D987D8B0D987
D8ADD8B1D981
D8A7D984D985D8AAD982D8AFD985
D988D8AAD8ADD8AFD8AB
##3430
##D981D8A7D986
D8B7D8A7D8A6D8B1D8A7D8AA
D8B9D8A7D8ACD984
##D982D8B1D8A3
D8A7D984D8A7D8ADD8AAD8B1
D98AD8A7D8B3D8B1
D8AFD8A7D8AED984D98AD8A9
D984D8B4D8B1D8A7D8A1
D8A7D984D8AAD8B7D988D8B1D8A7D8AA
D8B4D988D8A7D8B1D8B9
D8A7D984D8AAD8ADD988D984
D8A7D984D8ACD98AD8B1D98A
D8A7D984D985D8A8D8A7D8B4D8B1D8A9
D8A7D984D8A5D8AFD8A7D8B1D98A
##D988D8A8D98AD8A7
D8A7D984D8A7D8B3D8AAD8B1D8A7D8AAD98AD8AC
D8B3D8A8D8B9
##D8B6D8A7D98AD8A7
D984D8B3D8A7D986
##D98AD8A7D986D8A7
D8A7D984D983D8B1D98AD985D8A9
D8B1D8ACD8A8
D8A7D984D985D8AED8B5D8B5D8A9
D8AED8A7D8B7
##D984D8A7D985D98AD8B0
D8A7D984D8AED984D98AD8ACD98A
D8B1D8B6D8A7
D8A7D984D984D8ACD8A7D986
D8AAD8ADD8B6D98AD8B1
D988D984D8A8
D8A7D984D8B9D982D8A7D8B1D98AD8A9
D8A7D984D8AAD8A7D8B3D8B9D8A9
D8AAD8B7D984D982
D8B9D982D984
D8A3D8B8D987D8B1D8AA
D8A7D8ABD8B1
##D8B7D98AD8A7D8AA
D8B9D8A7D8AFD98A
D8A7D984D8B9D8A7D8B7
D8AAD8A3D8AED8B1
##D8B9D984D989
D8A7D984D985D8A7D8AFD98AD8A9
D8AAD8AAD8A3
D986D982D8A7D8A8D8A9
D8A7D984D8B9D985D8A7D984D8A9
D988D8A8D984D8BA
D8A7D984D981D8A7D8B1
D8B3D987D988D984D8A9
D984D8AAD983
##D988D981D8AA
D8AAD981D988D982
D8A3D984D988D8A7D986
3939
D985D8B4D987D8AF
D8A7D984D8AED8B7D8B1
D8A7D984D8A7D8B1D8A8D8B9D8A7D8A1
D988D8A7D984D985D982
D8A7D984D98AD8A7D8A8D8A7D986D98AD8A9
D988D8A7D8AED8AA
D8AAD986D981D98A
D8A8D98AD983
D8B9D988D8B6
D8AAD8B9D8B7D98A
##D8B4D98AD8AD
D8A7D984D8B3D986D988D98A
D8A7D984D8ADD983D988D985D8A7D8AA
D8A7D984D985D8ACD8A7D988D8B1D8A9
D984D988D8B6D8B9
##D8ACD8B1D98A
D8A7D984D8A3D8B1D982D8A7D985
D8A7D986D8B4D8A7D8A1
D8A7D984D985D8A4D982D8AA
D8A7D984D8ABD8A7D986D989
D8B3D98AD8B9
D988D8B5D988D984D8A7
D8A8D8B5D8B1
D8A2D8AFD985
D8A7D984D985D8B7D8A7D8B1
D8A7D984D8B9D8B3D984
D8A7D8B9D8AAD982D8AF
D8A7D984D985D8B9D8A7D98AD98AD8B1
D8B3D8A8D984
D8A7D984D988D8A8D8A7D8A1
D8A7D984D8ABD986D8A7D8A6D98A
D8B3D985D8B9D8AA
D8AFD98AD988D8A7D986
D8AAD8B1D983D98AD8B2
D985D8ADD8AFD988D8AFD8A9
D8A7D984D8ACD987D8AF
D8A7D984D981D8A6D8A7D8AA
D8A7D984D8B5D986D8A7D8B9D8A7D8AA
D8A7D984D985D8A8D8AF
D98AD8B9D985D984D988D986
D8A3D8B1D982D8A7D985
D8A8D985D8AED8AAD984D981
##D8A8D984D8A7D8BA
D8ADD8ACD8B2
##D982D8AFD8B1D8A9
D8A7D984D8AAD8BAD8B0D98AD8A9
D983D8B3D8A8
D8A7D984D984D989
##D985D8AAD8B9
D988D8B7D986D98A
##D8A8D8B6
D8ACD8A7D8A8D8B1
D8A7D986D8B4
D8A7D984D8ADD8B5D8A7D8B1
D984D984D985D8B1
D982D8A7D8B3D985
##6F70
D8A7D984D8B3D8B1D98AD8B1
D8B9D8B1D981D8AA
D8A7D984D985D8B1D8A7D981D982
D988D8A7D984D8AAD8B9D8A7D988D986
D8A8D8A7D984D8A7D8B9
D985D986D983D985
D98AD983D988D986D988D8A7
D8A7D984D8A7D8B3D8AAD8A7D8B0
D8A7D984D985D986D8AD
D8A7D984D8B4D8B1D8B9D98A
D984D984D986D8B3D8A7D8A1
D8A7D984D8AAD8B1D8AAD98AD8A8
D982D8B5D981
D985D988D8B8D981D98A
##D983D8AAD8B4D981
D98AD8AAD8A8D8B9
D8A7D984D8ADD8A7D8B3
##D8A7D8B9D8A7D8A9
D988D8A7D984D985D981
D8A7D984D985D98AD8AA
D8A7D984D981D8B5
D982D988D985
D8A7D984D8B3D8B9D8A7D8AFD8A9
D8A7D984D8B6D8B1D8A7D8A6D8A8
D985D8ABD98AD8B1D8A9
##D983D8AAD98AD8B1D98AD8A7
363030
##D98AD8A7D986D8A7D8AA
D988D8B9D985
D985D8A7D8AF
D98AD8AAD8AE
D988D8B3D98AD8AAD985
D8ABD8A7D8A8D8AA
D988D8A7D8B6D8ADD8A7
##D986D987D8A7D8A1
D8ACD98AD986
D8A7D984D985D987D8AFD98A
D985D8B9D8AAD8A8D8B1
D8AED8AAD8A7D985
D8A7D984D985D8AED8B7D8B7
D985D981D8B1
##D98AD8AAD8B4
D8A5D986D98A
D8A7D984D985D8B3D8AAD988D98AD8A7D8AA
D8A8D8A7D984D8AFD985
D985D987D8A7D8ACD985
D8A7D984D8B0D987D8A8D98A
D981D988D8B1D98A
D8A7D984D8B6D985D8A7D986
##D981D8B1D8A7D8AC
D981D8A7D8A6D8AFD8A9
D8A7D8B9D8AA
D8A5D8B3D984D8A7D985
D8A7D984D985D8A8D98AD8B9D8A7D8AA
##D8A7D8B9D8A7
##D98AD982D98AD8A9
D8B6D8B1D8A8D8A9
D98AD8A4D985D986
D8A8D8B9D8AFD987
##D8B9D8A7D981
D8A7D984D982D8AFD8B1
D982D8B5D8AF
##D982D8A7D988D985D8A9
D8A7D984D8ADD98AD986
D8A7D984D8B7D8A8D982D8A9
D8ADD8B5D8A9
D985D8B3D8A4D988D984D98A
D98AD8B9D8A8D8B1
D8A7D984D982D8B1D98AD8A8
D988D8B2D988D8AC
D8ADD983D988D985D98AD8A9
##D98AD8B1D987D8A7
D8A7D986D8AAD982D984
D8A7D984D981D8B7D8B1
##D8B3D8B3D8AA
D8A8D8A7D984D982D988D984
D8B9D8A7D985D8B1
D985D8ADD8A7D981D8B8D8A7D8AA
D8A7D984D985D8ADD98AD8B7D8A9
D8B3D8B1D98AD8B9D8A7
D8A7D984D982D8B5D8B1
##D984D8AAD98AD986
D988D8B2D986
D985D8A8D8A7D8B1D8A7D8AA
D8A7D984D986D982D8A7D8A8D8A9
D8B4D8A7D985D984
D8ADD8AFD8A9
D8BAD8B7D8A7D8A1
##6972
D988D986D982D984D8AA
D985D98AD986D8A7D8A1
D8ADD985D8A7D985
##D982D8B0
D986D8B2D984
D8AAD981D982D8AF
##D986D8A8D98A
D8A7D984D982D984D98AD984
##D8A7D981D8B1D98AD986
D8A7D984D981D8AAD8A7D8AD
3439
D8A7D98AD986
D8AED98AD8B1D8A7
D8A7D984D8A3D987D984D98AD8A9
D985D98AD8AFD8A7D986
D8B7D8B1D8AF
D8AED8B5D8A7D8A6D8B5
D8B9D8B8D98AD985
D8A8D8A5D8B0D986
D8B4D8A8D983D8A7D8AA
D984D984D8ADD8AF
D8A7D984D8B9D8B4
D988D8A7D984D8B8
##D984D985D987
D8A7D984D8A3D8A8D8ADD8A7D8AB
D983D8B0D8A7
##D8B9D988D985D8A9
D8ADD8A7D988D984D8AA
D8A7D984D988D8B5
##D984D8A7D986D98A
##D8B3D8AAD985D8B1
D8A7D984D987D8ACD985D8A7D8AA
##D8A8D8B1D98A
##D985D98AD8B5
D985D8A8D8AF
##D8A7D981D98AD98AD986
D8A7D984D981D986D988D986
D982D8B1D8A7D8B1D8A7
D8A7D984D8B9D983D8B3
##6563
D8ACD8B3D8AF
D985D8AED8A7D984D981D8A9
D984D988D983D8A7D984D8A9
D8A7D984D985D8B3D8A7D8ACD8AF
D8A7D984D8B9D98AD988D986
##D8ACD98AD8A8
D8A7D984D8B5D984D8A9
##D8AAD8A7D8AA
D8A8D8B9D98AD8AFD8A9
D8A7D984D985D982D8AFD985
D8ABD8A8D8AA
D8A7D984D8A7D981D8AAD8B1
D8AAD982D8AFD985D987D8A7
##D8A8D983D8A9
D8A7D984D8A5D8B5D8A7D8A8D8A7D8AA
D8A3D8ACD8AF
##D8A7D984D98AD985
D8A7D984D986D8B5D988D8B5
D985D8AED8B1D8AC
D8A7D984D8A3D984D8A8
D8A7D984D8A3D8B2D8B1D982
D8A7D986D8AAD8B4D8B1
3835
D8A7D984D985D8B4D8A7D8B1
##D988D8A7D986D98AD8A9
D8AAD982D8B3D98AD985
D8A7D984D981D986D8A7D986D98AD986
D8A7D984D8B3D8A7D8ADD984
##D8B1D8A7D8AC
D982D8B3
##D8AED8A7D8B0
D8AAD8A7D8B1D98AD8AED98AD8A9
D8A7D984D8B9D8B7
D8A7D8A8D8AA
##D988D8B6D988D8AD
D98AD986D98AD983
D8B9D8AFD8A7
D988D8A7D8B0D8A7
D8A7D984D8B9D8A7D8AC
D8A7D98AD987
D8A7D984D8AED8B1D8B7D988D985
D8AAD8AAD98AD8AD
D988D8A7D984D8A7D8B3D8AA
D8A3D988D8B6D8A7D8B9
D8B1D987
D8B4D8B1D98AD981
##D8B0D989
D8A7D8B7D984D8A7D982
D8ADD982D982D8AA
D8A3D985D98AD8B1D983D8A7
D8A7D984D986D981D8B7D98AD8A9
D8B3D8A7D985D8B3D988D986D8AC
D986D988D8B9D8A7
D8A7D984D8A8D986D8A7D8AA
##D8AAD8ACD8A7D8AA
D988D8A3D986D987D8A7
D8A3D986D8B4D8B7D8A9
D988D8A7D987
D984D98AD8B1
D981D98AD8B1
D984D8A7D8B3D8AAD8AED8AFD8A7D985
D984D98AD988D986
D8A7D984D8B3D987D984
D8A8D8AFD8A7
D988D985D987
D986D8A8D8A7D8AA
##D986D8AFD8B3D98AD986
##D8B7D988D8A7D986D8A9
##D985D8A7D8B1D8A7D8AA
D8A7D984D981D983D8B1D98AD8A9
##D8B1D8A7D8AAD98AD8ACD98AD8A9
D985D986D8B8
D8A7D984D8B2D988D8ACD8A9
D98AD981D987D985
D8B4D8A7D8B1
##D8AAD8B3D8A8
D8A7D984D8B3D984D988D983
D984D985D988D982D8B9
D985D8AAD8AED8B5D8B5D8A9
##D8A7D982D8B7
D8A7D984D8B4D98AD8B9
D8A7D8B9D8AAD8A8D8A7D8B1D8A7
D982D984D8A9
D8A7D984D8A7D985D988D8B1
D984D8A3D8B3
D8B1D8A8D98AD8B9
D8A7D984D988D982D8A7D98AD8A9
D984D98AD8B1D8A9
D8B1D8ADD984
##D8AAD981D8B8
D8ADD8A7D8B1
D987D8A7D8B4
##D8B1D8B3D984
D8A7D984D8AAD8ADD984D98AD984
##D8AAD981D984
D8A8D8BAD8B6
D8A3D8B5D988D8A7D8AA
##D988D8B9D987
D8ACD8B9D981D8B1
D8A7D984D985D987D8A7D985
D8A7D984D8A7D8B5D8B7D986
D983D8B1D8A8
D987D988D98AD8A9
D8B1D8A8D98A
D8A7D984D982D8A7D8B1D8A6
D8A8D8A7D984D982D8A7D987D8B1D8A9
D8A7D8A8D8AAD8AFD8A7D8A1
D8A7D984D8AAD8B9D8B1D8B6
D8ACD985D8B9D8A9
##3130
D985D8ABD8A7D984
##D8A6D988D98AD8A9
D8A7D984D985D988D8B5D984
D8A7D8B3D8AAD985D8B1D8AA
D8AAD983D8A7D984D98AD981
##6E64
D8A7D984D985D8AAD8B9D8AFD8AFD8A9
##D8B1D983D98AD8A9
D8A8D8ADD8AF
D985D982D8A7D984D8A7D8AA
D8B1D8A3D8B3D987D8A7
D8A7D984D8AAD8A3D983D8AF
D8A7D984D8ACD8A7D985D8B9D98AD8A9
D98AD8AAD8B5
##D984D986D8AFD8A7
D8A7D984D8AAD8A7D8B1D98AD8AED98A
##D98AD985D986
##D8A7D986D98AD987
##D8A8D8B1D987
D8B1D8A3D98AD8AA
D8B1D8BAD8A8
D981D8A7D8B7D985D8A9
D985D986D8AF
D8A7D984D982D8A8D988D984
D8ADD8B3D8A7D985
D985D8B1D8A8
D8A8D8B1D98AD8AF
D98AD986D8AAD8AC
D988D8A3D8ADD985D8AF
D8A8D981D8B9D984
D8A7D984D981D8B9D8A7D984D98AD8A7D8AA
D8AAD982D8A7D985
D98AD8AAD988D982D981
D98AD986D8B5D8AD
D8AAD8AFD8B9D988
D8AED8A7D986
D986D987D8A7D8A6D98AD8A7
D983D984D98A
D984D984D8A7D8B9D8A8
D8B4D8AED8B5D98AD8A7
D8A7D984D8A3D986D8AF
##D8B0D8A7D8A1
##6562
D8A8D8A8D8B3D8A7D8B7D8A9
D8A7D984D8B3D8A7D8A6D982
D985D8ADD988D8B1
##D8B1D982D8A7D8A1
D8A7D8A8D986D8A7D8A1
##D986D8A7D984
D8A7D984D985D8AAD987D985D98AD986
D982D8A7D8B9D8A9
D8ADD98AD8A7D8AAD986D8A7
D8A5D986D986D8A7
##D985D8A7D984D98AD8A9
D985D8B9D8A7D984D8AC
D985D8A7D983D98AD986D8A7D8AA
D8A7D984D8AFD982D98AD982
D988D984D8A7D98A
##D8A7D984D988D986
##D8AAD982D984D98AD986
##D8A7D98AD8B1D986
D8AAD8AED981D98AD981
##D8AAD8A6D8A7D8A8
##D981D8B3D8A7D8AF
D8ADD988D984D987
D984D984D982D988D8A7D8AA
D8B1D8A7D8A6D8ADD8A9
D8AFD984
D8AAD981D8B4D98A
D8A7D984D986D8B3D98A
##D8B1D8ADD989
D8A7D981D8B1D98AD982D98AD8A7
D8A2D985D986D8A9
D988D8B9D8A8D8AF
D8A7D984D985D8AAD982
D8A7D984D8B4D8A7D985D984D8A9
3532
D8A7D984D8B3D988D8AFD8A7D986D98AD8A9
D985D986D8AED981D8B6D8A9
D8A7D984D8B7D988D98AD984D8A9
D8AED8B1D8ACD8AA
##D982D8AFD8A7D8B1
D984D8AFD8B1D8ACD8A9
D8AAD986D8B8D985
D988D98AD986D8AFD988D8B2
D8AAD981D98AD8AF
D8ACD8A7D8A6D8ADD8A9
##D983D98AD8A7D8AC
D8A7D984D8ACD8B3
D8A8D8AAD988D982D98AD8AA
D984D984D8A3D986
D985D8B0D983D8B1D8A9
D8AED984D8A7D98AD8A7
D986D988D8A7D8A8
D8AAD8BAD8B7D98AD8A9
##D8B7D8A3
D8A7D8B4D8AAD8B1
D8A7D984D982D8B1D989
D8A7D984D8A7D8AED8AAD984D8A7D981
##D8ABD8A8D98AD8AA
D985D8A8D98AD986D8A7
D8A7D984D8ACD986D988D8AF
##D8A7D8A6D983D8A9
D8A7D984D982D8A7D986D988D986D98A
##D8AAD8AAD8A7D8AD
D8A7D984D8B0D8A7D8AAD98A
D984D8AAD986D8B8D98AD985
D8A5D98AD987
##D988D8B3D985
D8A7D984D8A3D983D8A7D8AFD98AD985D98AD8A9
D8A7D984D983D8A8D8AF
D988D988D8ACD987
##D8B1D988D8B6D8A9
D8A7D984D8A3D8AED8B7D8A7D8A1
##D988D8B1D98AD8AF
D98AD981D98AD8AF
D985D8ADD8AAD988D989
D984D984D8AAD8B1
D98AD982D8B1D8A8
D981D8A4D8A7D8AF
D98AD8AAD986D8A7D988D984
D985D983D986
##D98AD984D98AD8B4D98AD8A7D8AA
D8A3D8ACD988D8A7D8A1
D8A3D8A8D98AD8B6
D985D8A7D984D98AD8B2D98AD8A7
D8A8D8B2D98AD8A7D8AFD8A9
D8A7D984D8B4D985D8B3D98AD8A9
D981D8B1D982D8A9
D8A7D984D982D988D98A
D8ACD984D8B3D8A7D8AA
D8A7D984D8B9D8B8D8A7D985
D8A8D8B9D8AB
D8A7D984D985D8B1D8B4D8ADD98AD986
D984D984D8A3D8B3D981
##D8A3D8AED8B0
D8A8D8A7D984D985D8A7D8A1
D8A7D984D985D8B1D8A7D8ADD984
D985D8B1D8B3D98A
D98AD981D8AAD8AD
D984D8ADD8B2D8A8
D8A7D984D988D982D988D981
D8A7D984D8A8D8B1D984D985D8A7D986D98AD8A9
D8B5D8ADD98AD8ADD8A9
D8A8D8A7D984D985D8B3D8AA
D986D8B9D984D985
D8A7D984D8ADD982D8A7D8A6D982
D8A3D8AED984D8A7D982
##D8B1D981D98AD986
##D983D8A8D8B1
D8B9D986D8AFD987D8A7
D8A5D98AD985D8A7D986
##D8AFD98AD8A8
##D8B9D8A8D8A9
##D8A7D8ACD98AD8A9
D8A7D984D985D981D8AAD988D8ADD8A9
##D8B3D988D985
D986D8B3D8AAD8B7D98AD8B9
##656D
D8B7D98AD8B1D8A7D986
D986D8A7D8AFD8B1
D8AAD984D981
D8A7D984D8B9D986D988D8A7D986
D986D8B8D8B1D98AD8A9
D8A3D986D8B5D8A7D8B1
D988D8BAD98AD8B1D987
D8A7D8B3D8AAD987D8AFD8A7D981
D8B1D98AD8A7D8B6D8A9
D988D982D8B1
D98AD8B1D8ACD989
D984D986D8B8D8A7D985
D8A7D984D8ADD8A7D8B1D8B3
D985D8B1D985D989
D8A7D984D8AAD982D986D98AD8A7D8AA
D8A5D983
D988D8AAD8ADD8B3D98AD986
D988D8A8D984
D982D98AD985D8AAD987D8A7
3634
D8ACD988D8A7D986D8A8
D8B1D8A8D986D8A7
D8A7D984D8B1D8ADD985
D985D8B6D989
D985D8A8D8A7D8ADD8AB
D8A7D984D8AAD8B5D8B1D981
D8B9D984D8A7D8A1
D8A7D982D984
D8B4D987D8B1D98AD986
##D988D982D98A
D8A7D984D8AFD8ACD8A7D8AC
3536
D8A7D984D985D8AAD8B3
D8AFD988D8B1D8A7D8AA
D98AD8ABD8A8D8AA
##D984D98AD8AF
D8A3D8B7D988D984
D8A8D8B7D984D8A8
D986D8B5D98AD8A8
D8A7D984D981D986D8A7D8AFD982
D984D984D986D8B8D8A7D985
D8A7D984D8B3D8AF
##D8A7D985D8AD
##D98AD98AD8AF
D8A7D984D8ADD8B1D8B3
##D984D981D984
D8A7D984D985D8A8D8B1
##D8A7D983D8A7
D8A7D984D8A3D8ACD986D8A8D98A
D8AAD8AFD984
##D98AD8A7D8AAD987
D8A8D8A7D8ADD8AB
D985D981D8AAD8A7D8AD
D988D8A7D984D8A8D8AD
D988D8A7D983D8AF
D985D983D8AB
##D8A7D988D8AA
D985D984D8B9D982D8A9
D981D8B1D988D8B9
D8AAD8AFD985D98AD8B1
D982D8A7D985D988D8A7
D984D984D8A7D8B3D8AAD8ABD985D8A7D8B1
D8A7D984D8A5D985D8A7D8B1D8A7D8AAD98A
D8B9D982D8AFD987
##D988D8ADD8AFD8A9
##D984D98AD985D988D986
##D8B0D8A7D983D8B1
D988D985D8B5D8B1
##D8A7D8A8D8AF
D985D985D8ABD984D8A9
D987D8AFD98AD8A9
##D8A7D984D98AD986
D8B3D8A7D8B9
D8A7D984D985D987D986D98A
D98AD8AFD987
D988D8A7D984D98AD988D985
D8A7D984D985D8AED8A7D8A8D8B1D8A7D8AA
D8A7D983D8AF
D8A7D984D8ACD985D8B9D98AD8A7D8AA
D8B5D8A7D8AFD8B1
D8B5D8AFD8A7D985
D8A7D984D8B4D98AD8B9D8A9
D8A7D984D8B2D8B9D98AD985
D8A8D981D988D8B2
D985D8B7D8B1
D8A7D984D988D8ABD8A7D8A6D982
D8A7D984D8A8D8A7D8ADD8ABD988D986
##D8B1D8B3D8A7D986D8A9
D8A7D984D8AFD98AD983
D8A3D8B9D8B8D985
D8A3D8B1D989
D8A5D8B3D8A8D8A7D986D98AD8A7
D8A7D984D8ACD985D987D988D8B1D98A
D8A7D984D8BAD8B1D981
D8A7D984D8A8D8B3D98AD8B7D8A9
D8A7D984D983D8A7D985D98AD8B1D8A7
D8A7D984D987D8A7D8B4
D988D8A7D984D8ABD8A7D986D98A
D8A7D8B4D987D8B1
D8ADD8AFD98AD8AF
D8A7D984D986D8B6
D8A3D8ADD984D8A7D985
D985D981D8A7D988D8B6D8A7D8AA
D988D8ACD8A8D8A9
D8A7D984D982D8A7D8AFD8B1
D8ACD986D988D8AF
##D8B9D8B1D981
##D984D8B7D98AD981
D984D984D986D8A7D8B3
##D8B2D8A7D8B2
D988D8A3D8B9D984D986
D8A7D984D984D982
D8A5D8B5D8A7D8A8D8A7D8AA
D8A7D984D985D982D8A7D985
D8A7D8B9D8B6D8A7D8A1
D8A7D984D8B4D8B1D983
D8AFD8A7D98A
D8A7D984D8A5D982D8A7D985D8A9
D8A7D8B9D8A7D8AFD8A9
D8A7D984D8A5D8ACD8A7D8A8D8A9
D988D985D8AFD98AD8B1
D986D8AFD988D8A9
D8A7D8B3D8AAD8AED8B1D8A7D8AC
##D982D98AD8A7D8B3
D8A7D984D8B1D8A7D981
D988D8A7D984D8A7D984
D8A7D8B3D8AAD983D985D8A7D984
D8A7D984D985D8B3D8AAD982D984D8A9
D8A7D984D8AAD8ACD985D98AD984
D8A7D984D8B0D983D8B1D989
D8A7D984D8ADD8A7D8B6D8B1
D8B4D8B9D988D8B1
D8A7D984D982D988
##D8A7D983D987D8A9
D8A3D988D982D8A7D8AA
D8A7D8AAD8B5D984
D98AD8B3D988D8B9
##D985D8ABD984D8A9
D8A8D986D981D8B3D983
##6F7265
D8A3D985D8B1D98AD983D98AD8A9
D985D8B9D8A7D8B1D8B6
##D8ACD8A7D8B2D8A9
##D988D982D8B1D8A7D8B7D98AD8A9
D8A8D8AAD8A3
D8ACD988D984
D8A7D984D8ADD8B1D988D8A8
D8B1D8AFD8A7
D8A7D984D985D8AAD8AED8B5D8B5
D988D8ACD987D987
##D981D98AD986
##D981D8B3D98A
##D8AAD8B5D8A7D8B1D8A7D8AA
D8A3D8B3D8AAD8B1D8A7D984D98AD8A7
D981D8B9D984D989
D8A7D984D8B3D8ACD988D986
D8A7D984D8AED984D982
D8A7D984D986D982D8AFD98AD8A9
3935
D8A7D984D983D8B1D8A7D985
D985D982D8A7D8B7D8B9D8A9
D8A7D984D8B3D984
##6170
D988D8A7D986D987
D8A7D984D8B3D98AD8AFD8A7D8AA
##D8A7D8A6D8A8D8A9
D985D8A4D8B4D8B1D8A7D8AA
D8A7D984D8B1D8ADD984D8A9
D98AD982D8A7D8B1D8A8
D988D981D8B9
D8A3D988D8A7D8AED8B1
D985D8B1D8A7D987
D8A7D8AAD987D985
##D8ABD8B1D8AA
D8A7D8ADD8AFD989
D985D988D8AB
D8A3D8B4D8B1D8B7D8A9
D8ADD98AD8A7D8AAD98A
##D988D982D8B9D8A7D8AA
D98AD981D983D8B1
D8A7D984D8B4D987D8A7D8AFD8A9
D8B7D981D984D983
##D8B4D98AD8B1
D988D8A7D981D982
D8B4D8ACD8B1D8A9
##D8A7D8B1D8AAD987D8A7
D985D8AED8AA
D8A7D984D8AAD986D981D8B3
D8A7D984D983D98AD985D98AD8A7D8A6D98AD8A9
D988D8AAD8B7D8A8D98AD982
D8A7D984D984D8A8D986D8A7D986D98AD98AD986
D8A7D8BAD8AAD98AD8A7D984
D8ADD8AFD98AD8ABD8A7
D8A3D8B4D8AF
D8AAD8A3D984D98AD981
D8A7D8B3D8A8D988D8B9
D8A7D984D987D986D8AFD98A
D984D8A3D8B3D8A8D8A7D8A8
##D981D8B6D984D8A9
##D985D8B1D8AA
D988D8A7D984D982D8B1
D8A8D988D8AAD98AD986
D985D8B3D8AAD982D984D8A9
D8A8D988D8B2D8A7D8B1D8A9
D8A7D984D8A8D8B1D98AD8A9
D8A7D984D8B9D8B6D984D8A7D8AA
D985D8AED98AD985
##617465
D988D8A7D984D986D987
D8ACD988D8A7D8A6D8B2
D8AAD988D8B3D98AD8B9
D8A3D987D985D987D8A7
D8AAD986D8AAD8AC
D8AAD8B3D98AD8B1
D8B1D988D986D8A7D984D8AFD988
##D988D8AFD8A7D986
D8A7D984D8ADD8A8D988D8A8
D988D8A3D987D985
D8A7D984D8A8D8AAD8B1D988D984
D981D8B9D8A7D984D98AD8A9
D8AAD8B4D8ACD98AD8B9
D985D8B6D8A7D8B9
D981D8A7D984D8AD
##D8B9D8A7D8AF
##D8A8D98AD984
D988D983D986D8AA
D8A7D984D8B3D986D98AD986
##D984D988D985D8A9
##D8A8D8B9D8AF
D8AFD8B1D8B9
##D988D8A7D984D98A
D984D8B9D8AFD8A9
##D8ADD98AD8A7D8AA
D98AD982D988D985D988D986
D8AAD988D985
D8A7D984D8A3D981D8B1D98AD982D98AD8A9
D98AD988D8B6D8AD
D8B1D8A6D98AD8B3D98AD8A9
##D8A7D8B4D98AD8A9
##D8AED8B1D98AD8A9
D981D8A3D986
D8A7D984D8A8D8A7D8ADD8ABD98AD986
##D8A7D987D985D8AA
D8A7D984D8A3D8ADD98AD8A7D8A1
D982D8AFD8B1D8A7D8AA
D8AAD985D986D8B9
D8B3D98AD8A7D8B3D8A7D8AA
##6976
##6967
##D984D8A4
D8A7D8B1D8AAD8A8D8A7D8B7
##D988D8B7D8A9
D988D986D8B3
D8A7D986D987D98AD8A7D8B1
D984D8AAD8A8
D8B7D8B1D98AD982D987
D8A7D984D8AAD988D8ACD98AD987
D8A8D988D8B5D8A9
D8A7D984D8B9D8B2D984
##D982D98AD985D8AA
D8B1D8A8D8AD
D8B1D8A3D8B3D987
D8A7D984D986D8A7D8AE
##D98AD8A7D984
D8A7D984D8A3D8B5D988D8A7D8AA
##D8A6D987
D988D8B6D8B9D987D8A7
D8AAD8B9D8A8D8B1
##D8B5D984D98A
D8B1D8ADD984D8A7D8AA
D8A8D981D8A7D8B1D982
D8A3D8B6D8B9
D8B4D982D8A9
D986D98AD8AC
D984D984D8A8D8ADD8AB
D984D984D8AAD8A3
D8A7D988D984D8A7
##D8B1D8A7D8AFD8A9
D8AAD8AAD988D981D8B1
D8A3D8B5D8AFD8B1D8AA
D8AAD986D8B5
D987D8ACD985D8A7D8AA
D981D8B1D98A
D985D8B3D8A8D982D8A7
D985D8B6D985
D8A7D984D8AAD8ADD8AFD98AD8AB
D984D984D8AAD981
D988D8B3D98AD8B7
D988D8A7D984D8AFD983D8AAD988D8B1
D98AD986D8AAD987D98A
D985D8AED8AAD8B5
D8AAD8A3D983D8AF
##D8A7D8A6D8B3
D98AD985D986D8AD
D8A7D984D8A7D985D8A7D985
D8A7D984D985D8AAD8B4
##D8A8D988D983
D8B9D8B1D8B6D8A9
D8A7D984D8A5D982D984D98AD985D98A
D8A5D98AD8A7D987
D8A8D8B7D8A7D982D8A7D8AA
D8A2D98AD8A9
D8A7D984D8A5D8B0
##D982D8A7D984
3537
D8A7D984D988D8A7D8B1D8AFD8A9
D985D8B7D8A7D8ADD986
D981D984D98AD8B3
D8B3D98AD8AA
D8A7D984D8AFD988D984D989
##D8B4D8A7D8B1D8A9
D8A7D984D8ADD8B1D8A7D8B1D98AD8A9
D8A8D8B3D985
D986D8B8D98AD981D8A9
D8A7D984D984D8A7D8B2D985
D8A7D984D8B9D8B2
D8A8D8A3D983D985D984
D983D8B1D988
D8A7D984D986D8B2D8A7D8B9
D8A7D984D982D98AD8A7D985D8A9
##D983D8B1D98AD8A7D8AA
D8A8D8AAD984D983
##D985D8A8D98AD8A9
D8A7D984D8A3D8A8D8B7D8A7D984
D8ACD98AD985
D988D8A7D98AD8B6D8A7
D985D8B5D8B7D984D8AD
##D8ADD988D984
##D8B6D8A7D8A6D8B9
D981D8B1D8AC
D986D8B9D98AD8B4
D985D985D984D983D8A9
D985D981D98AD8AFD8A9
D8A8D8AED8B7
D8A7D984D985D8B1D981
##D986D982
D8AED8B3D8B1
D8AAD988D8B8D98AD981
D8A7D984D8AAD8AFD8B1D98AD8B3
D8A7D984D981D8B6D8A7D8A6D98AD8A9
D8A7D981D8AAD8AAD8AD
D98AD8ABD98AD8B1
D985D983D8A7D8AAD8A8
##D8AAD981D8AA
D988D985D986D987D985
##D8B9D8A7D8A8
D8AAD986D8B3
D8B5D98AD8AF
D984D8B4D8A4D988D986
D8AFD8B1D8AFD8B4D8A9
D8AAD982D8B1D8B1
D987D8A7D8AFD98A
##D983D98AD98AD981
##D8A7D8A8D8B3
D8A7D984D8AAD985D98AD98AD8B2
D8BAD8B2
##D8AFD98AD987D8A7
D982D8B1D8A7D8A8D8A9
D8B1D988D8A7D8AF
D988D8B9D8A8D8B1
D983D8ABD8B1D8A9
D8B1D98AD8A7D8B6D98AD8A9
D8A7D984D985D987D8A7D8B1D8A7D8AA
D8B3D981D98AD8B1
D8A7D984D986D8A7D8B7D982
D985D984D8ADD988D8B8
D987D98AD983D984
##D8B6D8B1D8A7D8A8
D8A7D984D8A5D8B3D985
D8A7D984D8A8D8B7D8A7D984D8A9
D8B4D8BA
D8A3D8ADD8AFD987D985
D984D984D8ACD986D8A9
D985D984D8AAD982D989
D98AD8AAD8B3D8A8D8A8
D8A7D984D986D982D8B7D8A9
D985D8AAD8ADD8B1D983
##D8A7D985D989
D8A7D984D8AED984D981D98AD8A9
D8B9D986D8AFD986D8A7
D8A2D986D8B0D8A7D983
D8A7D984D985D988D8B8D981
D8ADD8B5D8B1
D8AAD8ACD8A7D8B1
D8AAD983D8B1D8A7D8B1
3534
D8AFD8B1D988D8B3
D988D8ADD985D8A7D98AD8A9
##D8AAD981D8A7D8B6D8A9
D8B5D981D8A9
D8A7D984D985D983D8B3D98A
D8A8D8B1D981
##D8ACD988D986
D8A7D984D8B3D8B1D98AD8B9D8A9
D981D984D988
D8ACD8B2D8A7D8A1
D8B1D988D8A7D987
D8AAD8A7D985
D8A7D984D982D8B5D98AD8B1D8A9
D98AD985D983D986D987D8A7
D8A3D8B5D984D8A7
D8ACD8A7D8B2
D8B1D8B9
##D8ADD8B7
D8B3D8B7
D8A7D984D8B9D8A7D8B4D8B1D8A9
D8A7D984D985D8B3D8A7D8ADD8A9
D8A7D984D8B2D98AD8A7D8AFD8A9
##D8A7D8B7D8A7D8AA
D8A7D8B3D8AAD8B9D8AFD8A7D8AFD8A7
D8A5D985D8A7D985
D986D985D8A7D8B0D8AC
D8A7D984D985D986D8B4D8A2D8AA
D8ADD983D988D985
D8A7D984D981D8AC
D8A7D984D985D8B2D8A7D8B1D8B9
D8A7D984D985D8B3D984D8AD
D8A7D984D985D8B3D984D985D988D986
##D8AFD985D8A7D8AC
##D8A7D988D989
D8A7D984D984D8BAD8A7D8AA
D8B1D8A7D8A8D8B7D8A9
D8BAD8B1D8A7D8B1
D8A7D984D8A3D985D8A7D986D8A9
##3830
D8A7D985D98AD8B1
D8A7D984D8A7D8B9D8AAD8B1D8A7D981
D8A8D8AAD986D981D98AD8B0
D8A7D984D8ACD8A7D986
##D8A7D8B6D8ACD8A9
313933
##D8A6D8AA
D8B7D8A8D982D8A7
D8A7D984D8AAD8B9D984D98AD982D8A7D8AA
##D8B9D983D8B3
D8ACD984D8A8
D8B9D8A8D98AD8AF
D8AAD982D986D98AD8A7D8AA
D8A7D984D985D8B0D983D988D8B1
D986D8A8D98AD984
D985D8AED8B5D8B5D8A9
D8B3D98AD8A7D8B3D98AD8A7
##D984D981D8B2D98AD988D986D98AD8A9
D982D8AFD98AD985D8A9
D8ACD985D987D988D8B1
##D988D8A7D984D989
##D8A7D8B6D8B1D8A7D8AA
D8A8D8ADD8ACD985
D8A7D986D8B7D984D982D8AA
D8A7D984D8A8D98AD8A6D98AD8A9
D8B4D8A7D8B1D983D8AA
D8A7D984D985D8B3D8A8
D986D8B3D8A8D98AD8A7
##D8B1D988D8ADD8A9
D8A3D8ADD985D8B1
D988D98AD8B9D985D984
##D98AD8AFD98AD8A9
D8B1D8ADD985
D985D8B9D8B1D988D981D8A9
D985D8A8D8A7D8AFD8A6
D8A7D984D8A3D8B3D8A8D982
D8A7D984D8BAD8B6D8A8
##D8B1D988D982D8A7D8AA
D8A7D984D985D8B3D98AD8ADD98AD8A9
##D988D8A7D8AAD98A
D988D98AD983
D8AAD8AFD8B1D98AD8AC
D984D8AAD8ADD8B3D98AD986
##D984D8B7D8A7D8AA
D8B3D8B1D8B7D8A7D986
D8A7D984D8B2D988D8A7D8B1
D8A7D984D985D8A4D8B4D8B1
D8A7D984D986D981D8A7D98AD8A7D8AA
D8A7D984D8B3D8A8D8A7D982
##D982D988D984D8A9
##D98AD981D98AD8A9
##D8A7D8AAD8B0D8A9
D8A7D984D8ADD8A7D8B1
D986D8B9D985D984
D984D984D8AFD981D8A7D8B9
D98AD987D8AAD985
D8ADD8B3D8A7D8A8D987
D8A7D984D985D988D8B1D8AF
D8A2D98A
D8A7D984D985D8ADD8AAD985D984
D988D985D981
D8A7D984D982D8A7D8B1D8A9
D8A7D984D8B1D8A7D8A6D8AFD8A9
3533
D985D8AAD8B7
D988D98AD8A8D8AFD988
##756D
D8A7D984D985D8B1D8A1
##D8A7D983D8B4
##D8B1D8A7D985
##D8B1D8AE
D985D8A4D8B3D8B3
D988D8B5D8AD
D8ADD8B0D981
D8AAD8AAD983D988D986
D8B9D984D8A7D988D8A9
D8A7D984D8B9D984D8A7D985D8A7D8AA
D8A7D8AED98A
D8A7D984D8B4D8B1D8A7D983D8A9
##D8ABD984D8A7D8ABD8A9
D8A7D984D8A3D8B2D985D8A7D8AA
D8A7D984D8A8D8B1D98A
D988D8B9D8B6
D8A7D984D981D986D989
D8A8D8A7D8B9D8AAD8A8D8A7D8B1D987D8A7
D8A7D984D988D8A7D8ACD8A8
D8AAD8B1D8A8D98AD8A9
D988D8A7D984D985D8AC
D988D8A3D8AED8B0
D988D8AFD988D984
##D8A7D8AFD981
D988D8A7D8B4D8A7D8B1
D8A6
D8A7D984D8ADD8B3D8A7D8A8D8A7D8AA
D981D98AD985D983D986
##D8AFD985D8AC
D8A7D984D8B1D8A3
D8A7D8B7D8A7D8B1
D988D8ACD988D987
D8A3D8B4D8A7D8B1D8AA
##D981D8B7
##D8B1D8ADD984D8A9
D8A7D984D8ACD987D8A7D8AF
D8AAD8B7D8A7D984D8A8
##D988D8B5D8A7D8AA
D98AD8B1D8AD
##D8B2D8A7D8A6D8B1
D8A8D8B1D985D98AD984
D8A7D984D8A3D8B5D984D98AD8A9
D8A7D984D8A2D984D98A
D8A8D8A7D8B3D8AAD8ABD986D8A7D8A1
D984D987D985D8A7
D8B3D984D8A8D98AD8A9
D8A3D8B9D985
D8A7D983D8AAD8B4D981
##D8AED8B1D98AD986
##D8A6D985D8A9
##D8B5D8AA
D8A3D986D8B3
D8A8D981D8AAD8AD
D8A7D984D8B3D8A7D8A6D984
D8A7D984D8B5D981D982D8A9
D8B1D8AFD988D8AF
D8B9D985D8A7D8AF
##D988D8AFD8B9
D8A7D984D8B0D983D8A7D8A1
D985D8B8D987D8B1
D8AFD8A7D988D8AF
D8A7D984D8A8D984D8A7D8B3D8AAD98AD983
D8A7D8B1D8AAD981D8B9D8AA
D8AAD988D8A7D981D982
D8A7D984D8A3D985D8B7D8A7D8B1
##D8A7D986D8BA
##D981D8B9D984D987
##D8ACD98AD8A7D984
D988D8A3D8AED8B1D989
D8A7D982D8AAD8AD
D8A2D8AED8B1D988D986
D8A7D984D8A8D8ADD988D8AB
D984D984D8B7D8A7D982D8A9
D988D8A7D984D8B9D8AF
##D8AAD985D98AD986
D8A8D8A7D984D8A3D8B3
D8A7D984D8AAD8B1D8A8D988D98AD8A9
D8A8D8ADD983D985
D8A7D984D8AAD8B1D981D98AD987
D8A7D984D985D8B3D8AAD982D8A8D984D98AD8A9
D8A7D8AED8AAD8A7D8B1
##676C65
D8A7D984D8A5D8ADD8B5
##D8B1D98AD8BA
##D8ADD989
D8ACD8B9D984D8AA
D8A7D984D981D98AD8B2
D8A7D984D8A3D985D8A7D986
##D983D8B1D8B1D8A9
D8BAD8B1D98AD8A8D8A9
D8ACD986D98AD981
D8A7D984D981D8ACD8B1
D8A7D984D988D8B5D981
D98AD8AAD983D988D986
D8A7D984D8AAD8AFD8B1D98AD8A8D98AD8A9
D984D984D985D8B3D8AAD8AED8AFD985
D8A7D984D8A7D8B3D8AAD987D984D8A7D983
D8AAD985D986D8AD
##D98AD984D988
##D8AAD985D8A7D986
##D8A7D98AD8B2
D8A3D8A8D8B1D8B2D987D8A7
D8B3D8A7D8AA
##D8A7D8A6D985D98AD986
D8AAD986D8AAD8B8D8B1
D8A7D8B3D8AAD8B1D8A7D8AAD98AD8ACD98AD8A7D8AA
D984D8A3D8ACD984
D988D8A8D8AFD8A3D8AA
D8A7D984D981D984D8A7D8AD
D8ADD8B1D982
D8A8D8AAD987D985D8A9
D8A7D984D984D8A7D985
D8A7D984D8B9D8A7D8B4D8B1
D8A2D984D98AD8A7D8AA
##D8A8D8B1D98AD8A9
D8A7D984D8A3D8ADD983D8A7D985
D8B4D8A7D8AD
##656E74
D8A7D984D8B4D98AD988D8AE
D8A8D8A7D984D985D982
D985D983D8A7D986D8A9
D8A7D984D8B9D8B1D8A7D982D98AD98AD986
##D8B7D8A8D8A7D982
D985D8B9D8A7D986D8A7D8A9
##D8B2D8B9D8A9
D8AAD981D8AAD8AD
D8A7D984D8B3D986D988D98AD8A9
D8AED981D98AD981D8A9
D8A7D984D8BAD8AF
D8A7D984D985D8B7D8B1D982D8A9
D8AAD986D8B3D98AD982
D8A7D8B1D8AAD8AFD8A7D8A1
##D984D8B2D985D8A7D8AA
D8AAD8B3D8A7D987D985
D988D8A7D984D8B4D8B9
D8A7D984D8AFD981
D8A8D8B1D8B9D8A7D98AD8A9
D8A8D8B7D8B1
D8B3D8AAD8B4
##D8AAD8BAD984
D8ADD981D8B8D987
D8A7D984D8ACD986D8A7D8A6D98AD8A9
D8A3D984D982
D8A7D8AAD8B5D8A7D984D8A7D8AA
D987D98AD8B1
D987D8A7D8B1
D8A3D8A8D8A7
D8A8D8AFD988D8B1D987D8A7
##D987D8B1D98A
D8A7D984D988D984D8A7D98AD8A9
D8A7D984D983D984D98A
D985D98AD984D8A7D8AF
D8A7D984D8B9D8AFD988D989
D8A7D984D8B9D8A7D8AFD8A9
##D985D8A8
D8A7D984D8ACD8A7D986D8A8D98AD986
D98AD8B3D8A7D987D985
D8A7D984D8ADD988D8ABD98AD98AD986
D8A3D8B9D984D8A7D987
D986D988D8B9D987D8A7
##D98AD8AFD8A7D8B9
D8AAD988D8B5
D985D8AAD988D8B3D8B7D8A9
D8A7D984D8BAD8B2
D984D984D8AAD982
D98AD8AFD988D8B1
D8AAD988D8B5D984
##D8AED98AD8B5D8A9
D8BAD988
D8A7D984D981D988D8A7D8A6D8AF
D8AAD98AD8A7D8B1
D985D985D8AA
D984D8A7D8A6D8ADD8A9
D8B3D98AD8A6D8A9
D8A7D984D8A3D8B1D8A8D8A7D8AD
D8A7D984D8AED8B4D8A8
D988D8B9D98A
D8A7D8B5D8ADD8A7D8A8
D98AD988D981D986D8AAD988D8B3
D8AAD988D982D8B9D8A7D8AA
D8A7D984D8AAD8A3D983D98AD8AF
D8A7D984D8B3D8AD
D8A7D984D8A7D985D8B1D98AD983D98A
D8ACD984D8A7D984D8A9
D984D8ACD8A7D986
D8B4D982D982
D984D98AD987
##D8AFD8A8
D8A7D8B9D8AAD8B1D981
D982D8B5D98AD8AFD8A9
##D8AAD987D986
D8A7D984D988D8A7D984D8AF
D8A7D984D8AAD982D984D98AD8AFD98A
D8AAD8AAD8AE
D988D988D984
##D8A7D8B7D98AD986
##D8AAD8B1D982
D8A7D984D8AED8B3D8A7D8B1D8A9
##D986D8AAD98AD986D98A
D8ADD8B3D985
D8A7D8AED8B0
D8ACD8AFD8AF
D8A7D984D8B0D987D8A8D98AD8A9
D8A3D8AAD985D986D989
D988D8A3D988D984
D8A7D984D8B6D8ADD8A7D98AD8A7
##D8AAD987D8B1
##D8A7D8ABD98AD8A9
D8ADD8B2D8A7D985
##D8AAD8B2D985
D8A7D984D985D8A7D8B3
##D984D8A7D8ADD8B8D8A7D8AA
D8A7D984D8B1D982D985D98A
D8A7D984D8ABD988D8B1D98A
D985D987D8AF
D984D8A5D8ACD8B1D8A7D8A1
D8A7D984D8A5D8B6D8A7D981
D8B2D8B9D985
##D8AAD988D8A7D8A1
##D985D987D988D8B1
D8A7D984D8B5D8AFD8AF
##D8B7D8AA
D8A3D8B3D8A8D988D8B9D98AD986
D988D984D8A3D986
D8BAD8A7D8B2
D8A7D984D985D8AAD8AF
D8B7D8A8D982D8A9
D8A3D8B3D8A7D8B3D8A7
D988D8A7D8AAD8B3
D8B1D8ACD984D8A7
##D988D8A8D98AD986
##D8B1D98AD8ACD98A
D8A7D984D985D986D8AAD8B8D8B1
D984D98AD8B5D8A8D8AD
D8B7D8B1D8A7D8B2
D8A7D984D8B7D98AD988D8B1
D8A7D984D985D987D8A7D8ACD8B1D98AD986
D8AED8A7D984
##D984D988D983D98A
##D8B1D98AD98AD986
D986D8A7D8AA
D8ACD8B2D8B1
D8A8D983D8A7D981D8A9
D8AAD8B6D8B1
D8AAD986D8A7D8B3D8A8
D8AAD8B9D8A8
D98AD984D8B2D985
D8AAD988D983
D8AAD8B4D8A8D987
D8A3D986D8A8D8A7D8A1
##696D
D984D984D8A7D985
##D8ACD8B1D8A7D985
D984D985D8B5D8B1
D8A7D984D8B4D8B1D981
D8A7D984D8A3D987D984D989
##D8B4D8B9
D8A7D984D8ADD8B1D8A7D985
D8A7D984D985D8AFD8A9
D8B9D8B6D988D8A7
D8BAD986D98A
D8A7D984D8AAD988D982D981
##D988D981D989
D982D8B1D98AD8A8D8A9
D98AD8B5D981
D8A3D981D8B1
D8ACD986D8B3D98A
D8A7D8B3D8AAD8A6D986D8A7D981
D8B4D8B1D8B9D98AD8A9
D8AED8B5D988D8B5
D8A7D984D8A5D98AD8B7D8A7D984D98AD8A9
D8A7D984D8A7D98AD8A7D985
D988D8A7D984D8A2D986
D984D984D8B9D8A7D984D985
##D8ABD98AD982
D8A7D984D8A7D8B3D984D8A7D985D98A
D8ACD988D987D8B1
D8A7D984D981D988D8B6D989
D8B4D8BAD984
D988D98AD982D988D985
##D8AAD981D8A7D8B9D984
D981D8B9D8A7D984D8A9
D8A7D984D985D8ADD8A7D983D985
D8B4D982D8B1D8A7D8A1
D984D8ADD8AF
D98AD8B5D8B9D8A8
D8A7D8A8D986D987
D8B7D987
##D8A7D8B4D989
D988D986D8B4
D8A7D984D985D983D988D986
D8A7D984D981D8ADD8B5
##D8AAD8AFD98A
D988D982D8AAD984
D8B1D988D8A7D8AA
D986D8ACD8ADD8AA
##D8A7D986D985
D8A7D984D8A7D8A8D8AAD8AFD8A7D8A6D98AD8A9
D8A8D8ACD988D8A7D8B1
D8A8D984D8AFD98A
D8A7D984D983D98AD8A7D986
D98AD984D8AAD982D98A
D8B9D982D8AFD8AA
D8AAD8ADD8AFD98AD8AFD8A7
D8B6D98AD982
D988D8A8D8B7
D8A7D984D8AAD983D984D981D8A9
D8A7D984D8A3D987D985D98AD8A9
D984D8B1D981D8B9
D98AD982D98AD985
D985D988D8A7D8B1D8AF
D8A7D984D8A8D8AED8A7D8B1D98A
D8B1D8A6D98AD8B3D98A
D8A7D984D8A3D8B3D8B1D989
##D987D8B1D8A8D8A7D8A1
##D983D8A8
D8A7D984D8AFD8B9D8A7D8A1
D8AFD988D8B1D987D8A7
D8A7D984D8A3D8B5D8AFD982D8A7D8A1
D8A7D986D8AED981D8B6
D8A7D984D8ACD988D8A7D986D8A8
D8A8D986D8ACD8A7D8AD
D988D8A7D984D8A7D8B1
D8ADD8B0D8B1
D984D8AAD8AF
D988D8A7D984D985D8A8
D988D98AD985D983D986D983
D986D8B3D985D8A9
D984D984D8B1D8ACD8A7D984
D8ABD8A7D8A8D8AAD8A9
##D8B1D98AD8A7D8A1
D8B9D985D982
D98AD8B9D98AD8B4D988D986
##D8B1D982D8AA
D8A7D984D8A7D985D98AD8B1D983D98AD8A9
D8ADD98AD8A7D8AAD987D8A7
D8A3D8B3D984D8ADD8A9
D8AAD985D987
D988D98AD8B5
D8A7D984D8ACD98AD8AFD8A9
##D8A8D982D8A7D8A1
##D8A7D8AFD988
D8A8D98AD986D986D8A7
##D8AAD8BAD984D8A7D984
D981D8B3D8A7D8AF
##6F63
D8B0D987D8A7D8A8
D8A7D984D8AAD8A7D985
D8B7D98AD8A8D8A9
D8A3D8B3D8A7D985D8A9
D8A7D984D985D98AD8AFD8A7D986
D8ADD8A8D988D8A8
D988D8AAD8A3D8AAD98A
D985D984D8A7D985D8AD
D8ACD8AFD988D989
##D8A8D98AD8A7D986
D8B3D984D8B7D8A7D8AA
D8A8D98AD986D987
##D8B2D989
D8A5D986D982D8A7D8B0
D8AAD8AAD8AED8B0
D984D984D985D8ACD984D8B3
##D8AAD982D8A7D8AF
##D8B4D8B1D8AD
D983D8A7D985D984D8A7
D988D8ABD982
D8A7D984D985D8ACD985D8B9
##D983D988D985
##D985D8AAD987D8A7
32303032
D981D8B9D8A7D984
D8B2D985D98AD984
D8A7D984D8B3D985D8A7
D988D8A5D8AFD8A7D8B1D8A9
D8A7D984D8AAD982D989
D984D985D986D8A7D982D8B4D8A9
D8BAD98A
D8A8D8A7D984D985D8AFD98AD986D8A9
D8B3D8B1D982D8A9
##D98AD8ACD8A7D8AF
D8A5D983D8B3
##D8AAD8AAD8AD
D8A7D984D8A3D986D988D8A7D8B9
D984D98AD984D8A7
D8A7D984D8A8D8B1D988D8AAD98AD986
D8A7D984D8A8D8AFD986D98AD8A9
D8A7D984D986D8AFD988D8A9
D8A7D984D983D8AAD8B1
D8AAD982D8B1
D8A3D984D98A
D8A7D984D8B9D8B1D8A8D989
D988D8A7D984D8B9D984D985
D8A7D984D8AAD983D986D988D984D988D8AC
D8A7D984D985D8B4D8A7D8B9D8B1
##D988D982D8A7D98AD8A9
D8B6D8A7D8A8D8B7
D985D8B4D8AFD8AFD8A7
D8A7D984D8B5D98AD8A7D986D8A9
D8BAD8A7D984D8A8D98AD8A9
D8A7D987D8AAD985
D981D8A3D986D8AA
D8A7D984D985D984D8AAD982D989
D8B4D8B9D8A8D986D8A7
D988D8AAD8B4D985D984
D988D983D8B1
D8A7D984D98AD988D8B1D988
D8A7D984D985D983D984D981
D8AAD8B3D8B9
D8A7D8B3D8AAD8B9D8B1D8A7D8B6
##D8B3D98AD984
D982D8AFD98AD985
##D98AD8AFD8B2
D984D985D8AC
D8A7D984D983D987D8B1D8A8D8A7D8A6D98A
D8A3D981D8BAD8A7D986D8B3D8AAD8A7D986
D982D8A7D8A6D984D8A9
D983D8B1D985
D982D8B7D8A7D8B9D8A7D8AA
D8B3D98AD8B4
D8AAD8B1D983D8B2
D988D8B3D98AD983D988D986
##4F53
D8A7D984D985D8A8D8A7D986D98A
D8A7D984D8A8D988D8B1D8B5D8A9
D8B3D8A7D987D985
D8AAD981D8B1D8B6
D8A8D982D984D985
D984D984D8ACD98AD8B4
D8A7D984D8A3D8B2D98AD8A7D8A1
D8B9D8B5D8A7D985
D98AD987D8AFD8AF
##D8BAD986D98A
##D8B7D8A7D984D8A8D8A9
D8A7D984D985D8B6D8A7D8AFD8A9
D8A7D984D986D8B3D8A8D8A9
D8A7D984D8AAD981D8B3
D8B3D986D8AAD98AD986
D981D8B1D98AD8AFD8A9
D8A8D982D8A7D8A1
##D98AD8A8D987
D8A7D984D982D985D8AD
##6F6F676C65
D8A7D984D985D8B3D8AAD8AFD8A7D985D8A9
D8A3D983D988D986
D8A7D984D982D8AFD8B1D8A7D8AA
D984D984D8A7D986D8AAD8AED8A7D8A8D8A7D8AA
D8A7D984D985D981D8AAD8B1D8B6
##D8A8D986D8A7D8A1
##D988D982D98AD981
D8A7D984D8B5D8A7D8B1
D8ADD8A7D983D985
D8AED8A7D984D98AD8A9
D8ACD988D8A7D8B2
D8A8D988D8B3D8AA
D8B9D986D8AFD987D985
D982D8A7D8B1
D985D8B1D8A7D8B9D8A7D8A9
D8A3D982D98AD985D8AA
D984D985D8B3D8A7D8B9D8AFD8A9
D8A7D984D8BAD8B1D8B6
D8A7D984D8AFD982D8A9
##D8A7D8A7
D98AD8B9D8A7D8AFD984
##D8B7D8B1D8A7D8A8D8A7D8AA
D8A7D8B3D985D987D8A7
D8A3D8B3D988D8A3
D8A7D984D985D8ADD8AFD8AF
D8A7D984D985D8A7D984D983D98A
D98AD8A7D8A8
D8B3D988D98AD8B3
D8A7D982D8AAD8B5D8A7D8AFD98A
##D8AFD987D8A7
D8AAD8B3D8AAD8ADD982
D8A3D8ADD8AFD8A7
##D8A7D8B9D989
D8A7D984D8B3D8B1D98AD8A9
D8A7D984D987D8B1D985
##D8A4D985D986
##D984D98AD98AD986
D986D8B8D98AD981
D988D8ACD8A7D8A1D8AA
D8A7D984D8A3D987D985
D8A7D984D8AAD985D8ABD98AD984
##D988D8A7D8B1D8A8
D8A3D8ACD985D8B9
D8ABD8A7D984D8ABD8A7
D8B3D8A7D985D98A
D8A7D984D8AAD988D981D98AD982
D8A8D988D8AA
D984D8A7D8B1
##D8A7D981D8B0
D8AFD988D984D98A
D8A8D985D8B5D8B1
D8A8D98AD8B6D8A7D8A1
D8B9D8A7D8B1D981
D988D8A7D984D8ABD982D8A7D981D8A9
D8B9D982D988D8A8D8A7D8AA
D988D8A8D8A7D8A1
D8B3D986D987
D8A7D984D8B3D98AD8A7D8AD
D8A7D984D985D987D8A7D8ACD985
D8A7D984D8ADD983D985D8A9
D8A7D984D8A8D986D8AA
##D8B1D98AD983D98A
D8B0D8A7D983D8B1D8A9
D98AD982D8B6D98A
D8B7D98AD984D8A9
##756C
D985D988D8A7D8B5D981D8A7D8AA
D8A7D984D985D8B4D98A
D8A7D984D8B5D8AFD98AD982
D8AAD983D8B1D98AD985
D8AFD8B9D8AA
D8A7D984D982D8B5D8B5
D8A7D984D8A5D8B3D8A8D8A7D986D98AD8A9
D8A7D8AED8AAD8B5D8A7D8B5
D8A7D984D985D8B7D8A7D8B9D985
D8A7D984D985D8AAD986D988D8B9D8A9
D8A7D8ADD984D989
D8B2D8A7D8B1
D985D8B9D8AAD8A8D8B1D8A7
D8A7D984D8B9D8B4D8B1
D8A7D984D985D8B1D8A7D982D8A8D8A9
D8A7D984D8B1D8ADD984D8A7D8AA
D988D8A7D984D982D8A7D986D988D986
D8A7D984D8B5D8ADD8A7D8A8D8A9
D8B1D981D8B6D8AA
D8AAD8B9D988D98AD8B6
D986D98AD8A7D8A8D8A9
D8A7D984D982D984D988D8A8
##D8B1D982D985
##D8ACD984D8AAD8B1D8A7
D8A7D984D8B1D8B6
##D985D8B1D8A7D8AA
D8A7D984D8ADD98AD8A9
D8AAD988D8B5D98AD984
##D985D8B3D983
##D8ACD984D98AD8B2D98A
D984D984D982D8B6D8A7D8A1
D8A3D8B3D98A
##D8A7D984D985D8A9
D983D988D8AF
D8ACD8A7D985D8B9
D8B0D987D8A8D8AA
3832
D8A8D8ADD8B1D98AD8A9
D982D8A7D984D987
D8B3D8A8D8A8D8A7
D98AD988D8A7D8B5D984
D988D8A3D8AC
D981D984D8B3D8B7D98AD986D98AD8A9
D985D8AAD8A8
##D8B5D988D8B5
D8A7D984D8AAD988D8A7D8B2D986
D8AAD8A3D987D98AD984
##D8B1D983D98A
D8B7D8A8D98AD8B9
##D8A7D8A6D986D8A7D8AA
D98AD986D987
D984D984D8AAD8B9D984D98AD985
D984D8A3D986D986D8A7
D8B3D983D8B3D98A
D8A8D984D98A
##D98AD984D8A7D8A1
##D8ACD8A7D8ACD8A9
D8A7D984D8AAD981D8A7D988D8B6
D8A7D984D8B3D98AD8A7D8B3D98AD98AD986
D981D8A5D986D986D8A7
D98AD988D986D8B3
D985D986D989
D8A7D984D8ACD8B3D8AF
D8AAD988D981D98AD982
D8A7D984D8A2D984D8A7D8AA
D8A7D984D8B9D98A
D988D8A7D984D8B3D98AD8A7D8B3D98AD8A9
D8A7D984D8B5D8A8D8B1
D8A7D984D985D982D8A7D988D985
D8A7D984D985D8A8D983D8B1
D98AD8ADD981D8B8
D8A7D984D8A8D8A7D8A8D8A7
D8B1D8A6
##D988D8AAD987D8A7
##D988D8A7D8B1D8AB
D981D983D8A7D986D8AA
D984D8A7D8B2
D8A7D984D8AED8B4
D8A7D8ADD8AAD985
D985D8B4D983D984D8A7D8AA
D8A7D984D8AAD8B3D988D982
##D8A7D981D8B3D98AD8A9
##D983D8A7D8B3
##D8ADD8AFD989
D8A7D984D981D8A7D8B3
D8B7D984D8A8D8AA
D8A7D984D8AED984D981
D8A7D984D8B5D988D8AAD98AD8A9
D8A7D984D8A8D98AD988D8AA
D8A7D984D8A7D8B3D8AAD8ABD985D8A7D8B1D98AD8A9
D8A7D984D985D8B5D984D8ADD8A9
D8A7D984D8AFD984D98AD984
D8ADD8AFD8ABD8AA
D981D8A6D8A7D8AA
D8A8D8A3D8B3D8B9D8A7D8B1
D8A3D8A8D8B1
D986D982D984D8AA
##696E64
D8A7D984D8A7D8B9D984D8A7D986
D985D8ADD8B3D986
D8ADD988D8A7D8AFD8AB
D8B9D8B5D98AD8B1
D984D8A7D8ADD982
##D8AFD985D8A7D986
D985D8AAD8A7D8AD
D8B3D8B1D98AD8B1
D8A8D986D8B4D8B1
D8B2D8B1D8B9
D8A8D988D8A7D982D8B9
D8AAD986D982D984
D8B1D8A7D8A8D8B9
D8A7D984D8B1D8ADD98AD985
##D8A8D8B9D8AB
D8ACD986D8A8
D8A7D987D984
D8A7D984D8A7D8B5D984
D8ADD988D984D987D8A7
D8A7D984D985D8B3D8AAD988D8B7
D8A7D984D8A8D8A7D983
D981D986D8A7D8AFD982
D985D8B4D988D8A7D8B1
D8B9D8B4D8B1D98AD986
D8A7D984D8ADD981
D985D8B1D8A7D8AF
3538
D8A8D982D8B1
D8A7D984D985D8B1D8A7D8AF
D8B9D985D984D98A
D8A7D984D8A7D985D98AD8B1D983D98A
##D8B9D987D8A7
##D8ACD8A7D8B9D8A9
D8A7D984D985D986D8B9
D988D98AD8B1D989
D982D984D8A8D987
##D8ABD982
D985D8AAD8B1D8A7
D98AD8AFD8B9D989
##D8AAD986D8B9
D8A7D984D981D8B1D8AFD98AD8A9
D8A7D984D8B7D984D8A7D982
D98AD8A7D8B3D98AD986
D8A7D984D981D8B1D982D8A9
D984D8B9D985D984D98AD8A9
D8A7D984D8A7D8AED98AD8B1
D8A7D984D8B1D8A7D987D986
D8A7D984D8A5D8A8D8AFD8A7D8B9
##D8AAD8B5D8A7D985
D8B5D8A7D8AFD982
D985D8A7D8ACD8AF
D8A7D984D8B1D8ACD8A7D8A1
##D985D8A7D8A1
##D8B2D8A6D8A9
D8A7D984D8A7D8B3D8AAD8AED8A8D8A7D8B1D8A7D8AA
D8A3D8B9D8B1D8A8
D8A7D984D985D8A8D986D989
D8A7D984D8A7D986D982D984D8A7D8A8
##D8B9D8AFD989
##D981D984D988D986
##D984D98AD8AD
D985D8A7D8A6D8A9
D8A7D8A8D98A
##D8ADD988D986
D8A7D987D985D98AD8A9
D8A7D984D8A7D8AED8AAD8A8D8A7D8B1
D988D8A7D984D8AED8A7D8B1D8AC
##D982D988D8A8
D985D8AAD8AA
D8A3D8A8D984D8BA
D8A8D8B0D984
D8A8D8A7D8B9D8AAD8A8D8A7D8B1D987
##D8B1D988D987
D8A8D8A3D983D8ABD8B1
##D8B4D8A7
D8A7D984D985D981D8B6D984D8A9
D98AD982D8B1D8A3
D8A8D8A7D984D984D988D986
##D8AAD982D8A7D986
D985D986D8B2D984D987
D8AAD8ACD8A7D8B1D98A
D985D985D8AAD8A7D8B2D8A9
D8A7D984D8ACD8AFD98AD8B1
D984D984D8AAD8AE
D98AD8B9D98AD8AF
D8A7D984D985D8B3D8AAD985D8B1D8A9
D8A7D984D981D8B1D8B9
D8B3D8A3D984
D8A5D8BA
##D8AFD988D986D98AD8B3D98AD8A7
D8A7D984D985D8B1D983D8A8D8A7D8AA
D984D8A5D986D8AAD8A7D8AC
D8AFD988D8A7D8A1
D8A7D984D986D8A7D982
D8A8D988D985
D8AAD8B0D987D8A8
D988D8AAD8ADD8AFD98AD8AFD8A7
D8A8D984D982D8A8
##D984D982D987
D8B5D8ADD981D98AD8A9
D8B3D988D8A8D8B1
D8A7D984D8B4D988D8B1D989
D8A8D8A3D8B9D985D8A7D984
D8A7D984D8A3D8A8D8B9D8A7D8AF
D98AD8B3D98A
D8A7D984D8B6D8B1D988D8B1D98AD8A9
D8A7D984D8A7D8AAD8ADD8A7D8AFD98AD8A9
D98AD8B9D983D8B3
D8A7D984D8B3D8B9D988D8AFD98AD98AD986
D8A7D984D8A3D8B1D8B2
##D8A7D8AFD98AD988
D985D8B4D8B1D988D8B9D8A7D8AA
D8A8D8A3D986D987D985
D8A7D984D988D987D8A7D8A8
D988D8A7D984D8B1D98AD8A7D8B6D8A9
##D984D981D8B8
D8A7D984D985D8AFD8A7D981D8B9
D8B1D983D986
D8B7D984D8A8D8A9
D8B9D986D8AFD983
D988D986D8B8D8B1
D8A8D985D8B9D8AFD984
D985D8AAD8ADD981
##657273
##D8B7D988D986
D988D984D8AD
D8AFD98AD986D98AD8A9
##D983D8AAD8A7D8AA
D8A7D984D984D8ADD988D985
D8A3D8B4D8B9D8B1
D8B3D982D981
D8A5D986D8B3D8A7D986D98AD8A9
D8A3D8B1D8B3D984
D8A7D984D986D982D8A7D8B4
D984D8A7D8AC
##D8B1D8B4D8A7D8AF
D98AD986D8B3
D986D8B6D8B9
D8A8D988D984D8A7D98AD8A9
D8ACD8A7D8B1
##D8AAD8B5D8A7D8AFD98AD8A9
D8A7D984D8AAD8AFD8AED98AD986
##D8A7D984D8B3D98AD988D985
D8A7D984D8A8D8AFD98AD984
D8B5D8A7D8B1D988D8AE
D8A7D984D8A8D8ADD8B1D98A
D988D8ADD8AFD987D8A7
D8A7D984D985D8AFD98AD8B1D98AD8A9
D8A7D8B9D8AFD8A7D8AF
D8A7D984D986D8B7D8A7D982
D8A7D984D8A3D8B9D8B1
D988D8A7D984D8ADD981D8A7D8B8
D8ADD8B1D8A9
##D8A7D8A8D987D8A7
D8A7D984D985D985D8A7D8B1D8B3D8A7D8AA
D8A3D8B3D8A7D984D98AD8A8
D981D8AAD8B1D8A7D8AA
D988D8A7D984D8A3D985
D984D988D8ACD988D8AF
D984D983D8A7D981D8A9
3539
D8A5D8B9D984D8A7D985D98AD8A9
##D985D98AD8A7
D8B2D8A7D8AFD8AA
D8B1D988D8A7D8AAD8A8
D8A7D8A6
D8A7D8B3D8B7D986D8A8D988D984
D8A7D984D8ABD985D986
##D8B2D8A7D986
D8A7D984D8B6D8BAD988D8B7
3637
D984D8A5D986D8B4D8A7D8A1
D8A7D984D986D8B5D8A7D8A6D8AD
D8B1D8A4D988D8B3
D8AAD8B5D988D8B1
D982D8AFD985D8A7
D8A7D8B3D8AAD982D984D8A7D984
D98AD8B7D8B1D8AD
D8A7D8B3D8AAD8AC
D8B2D98AD8A7D8B1D8AAD987
D8A7D984D8ACD988D8A7D984
D8A7D983D8B3
D984D988D8ADD8A7D8AA
D8BAD8B3D98AD984
D984D985D8ACD985D988D8B9D8A9
D8ABD982D98AD984D8A9
D985D8AED8A7D988D981
D8A7D984D985D8B3D8A4
D8A7D984D984D8B0D98AD986
##D983D988D984D8A7D8AA
D8A8D985D8B1D983D8B2
##D8A7D983D986D8A9
##D8AED984D8A7D8B5
D8B1D988D985
D984D985D8AAD8A7D8A8D8B9D8A9
D981D988D8B2D987
D8A7D984D8AFD8A8D984D988D985D8A7D8B3D98AD8A9
D8B4D8A7D8B9D8B1
D8A7D984D8AAD982D8AFD98AD985
##D981D8B3D987D985
D988D8A7D984D8A5D8B9D984D8A7D985
##D988D986D989
##D8ACD985D8A7D8B9
D984D984D8AAD985
D8A7D984D8A3D8ABD8A7D8AB
D98AD8AED8AFD985
D8A7D984D985D986D8B3
D985D8B1D8B6D989
D988D8A7D984D8A7D987
D988D8AFD981D8B9
D8A7D984D8AAD8B4D8B1D98AD8B9D98AD8A9
##D8A7D8B7D8A8
D8A7D984D8B5D8A7D986D8B9
D98AD8B9D8B1D981D988D986
D8AAD983D8B3D98AD8B1
D981D8B1D8A7D986D8B3
D8A7D984D8A5D8B7
D984D8AAD8B5D8A8D8AD
D8A7D984D982D8B3
D8A7D984D8AAD8B6D8A7D985D986
D984D984D985D8A8
D983D8AAD98AD8B1
D8B9D8B1
D8A7D984D8AFD988D8A7D8A6D8B1
D8ADD981D8B1
D8A8D8B9D985D984D98AD8A9
D984D984D8B4D8B1D983D8A7D8AA
D988D8B3D8A8
D8A7D8B7D981D8A7D984
D8A8D8AED98AD8B1
##D983D988D983
##D988D984D988D8ACD98AD8A7
D8A7D984D8B1D8A7D8BA
##3131
D8AED988D981D8A7
D8A7D984D8AED8B7D98AD8A8
D981D98AD8ACD8A8
D8A3D8AFD8B1D983
D988D986D982
D8A7D984D8B7D982D8B3
D986D8A8D98A
D8A7D984D8B2D981D8A7D981
D8A3D986D8AF
D8AAD8B7D984D8B9
D987D8B1
D8A7D984D986D8A7D8B1D98AD8A9
D8B3D8A8D988D8B1D8AA
3636
D8A3D8B5D8BAD8B1
D988D8A8D8AFD988D986
##D8B6D8ADD983
D8A8D986D98AD8A9
D8AED988D981
D984D98AD8AD
D985D986D987D8AC
##D8A7D985D8AAD987
D8A7D984D8B5D8ADD8B1D8A7
##D987D988D8B1D8A9
D988D8A7D8B3D8AAD982
D8A7D984D985D8AFD8B1D8B3D98AD8A9
D8A3D981D8A7D8AF
D8A7D984D981D8A7D8B9
D8A7D986D982D8B7D8A7D8B9
##D8B7D8A7D981
##D8A8D98AD8A8D8A9
D98AD982D8AAD984
D8A8D8A7D984D985D985D984D983D8A9
D8A7D984D8A8D8B1D8AAD8BAD8A7D984D98A
##D984D98AD981D8B2D98A
##D988D8B2D98A
D8A7D8B6D8BAD8B7
D8A3D8B6D8B1D8A7D8B1
D8A7D984D984D8A7D8AA
D984D984D8B7D984D8A7D8A8
##D98AD986D8A7D8A1
D985D8B5D8AF
##D988D985D8A7D986D8B3D98AD8A9
##B9D8A7D8A8
##3235
D988D8A7D988D8B6D8AD
D8A7D986D8B8D8B1
D8A7D984D985D8B3D8A7D987D985D8A9
D8A7D984D8A5D8B3D983D8A7D986
D8AAD985D8AFD98AD8AF
D8A7D984D8AFD8AE
D988D8A7D8ACD987D8A9
D8A3D986D8A8D988D8A8
D984D984D8B3D98AD8A7D8B1D8A7D8AA
D8AAD8B2D988D98AD8AF
D8A7D984D985D8ADD8AFD8AFD8A9
D8A7D984D8B3D8A7D8AED986
D8A8D8A7D984D8B9D8A7D8B5D985D8A9
##6865
##657373
##D98AD986D8AC
D8A3D988D8A7D8A6D984
D8AAD8B9D983D8B3
D988D8AAD8A7D8B1D98AD8AE
##D8AAD981D989
D8A8D8B1D984D98AD986
D988D8B4D8B9D8A8
##D8A7D985D8B9D8A7D8AA
D988D8B1D8A7D8A6
D8A7D984D8ACD986D98AD986
##D8B1D988D8B3D988D981D8AA
D8AAD988D8AC
D8A8D985D8A8
D8A7D984D8B1D98AD8A7D8AD
D984D8A8D98AD8B9
D8B3D8A7D8AD
383030
D8AAD8AAD8B3
D8A7D984D982D8A7D8AFD8A9
D8B4D8B1D8A7D8A6D8AD
##D98AD8A7D8AAD987D8A7
D8A7D984D8ADD8B1D8A7D983
D8A7D8ACD8B1D8A7D8A1
D8A3D988D984D8A7D8AF
D8A7D984D985D8ADD8A7D985D98A
##D981D988D981
D8B4D987D8B1D8A7
D8A8D985D982D8B1
D8A7D984D986D8A7D8B2
D986D981D8B3D98AD8A9
##D8A7D981D98AD987
D8A7D984D8B6D8B9
##D987D8A7D98AD8A9
D8A7D984D987D986D8AFD98AD8A9
D8A8D8AFD98AD984
D8A7D984D982D8A7D8A8
D985D8B3D8AAD988D98A
D8B9D985D984D8A7D8A1
D8AAD8ADD988D984D8AA
D8A7D984D8AAD8B1D8ACD985D8A9
D988D8AFD988D986
D8A8D984D8AC
D8A7D984D8ADD983D8A7D985
D984D8B4D8AED8B5
##D8B6D8ADD989
D8A7D984D8A3D988D982D8A7D8AA
D985D8B1D8AAD8A8D8B7
D8A7D984D8B9D982D8A7D8B1D8A7D8AA
D8AED8B0
D8A5D8B1D987D8A7D8A8D98AD8A9
D8A7D984D8AAD988D982D98AD8B9
##D8A6D98AD8A7
D8A7D984D8B7D8A8D982
D8A8D985D8ACD984D8B3
##D8AAD987D8AF
##D8B1D98AD8B2
##D8B5D8ADD8A7D8A8
32303031
##D987D8A7D98A
D8A7D984D986D8B8D8A7D981D8A9
D984D984D8AAD8AED984D8B5
D8AAD8B2D988D8AC
##D982D8B3D8A7D985
D8B1D8A8D987
D8AAD8B5D981
D8A7D984D8ACD8AFD984
D8BAD8A7D8AFD8B1
D987D8A7D8AAD981D983
D8A7D984D8B3D984D8A9
D8A8D8B9D8B1D8B6
D988D8A7D984D8AAD8AF
D8A7D984D8B9D8A7D8A6D8AF
D984D985D8B4D8B1D988D8B9
D8A5D8B3D982D8A7D8B7
D8A7D984D8A8D8B9D8AB
D985D8AAD985D98AD8B2
##D8A7D8AAD8A7
D984D989
D8A7D984D985D8ADD8B1D983
##D8A7D8A6D8B9D8A7D8AA
D8AAD985D8AAD8AF
D8B1D8ADD98AD984
D8A7D984D985D8A8D8A7D984D8BA
D8A7D984D8B0D983D98A
D8AFD8A7D8B9D98AD8A7
D8A7D984D8ACD984D988D8B3
D8A7D984D8ADD8B6D8A7D8B1D8A9
D8B9D986D983
D8A7D984D985D988D8A7D8B2D986D8A9
D988D985D98A
D8A7D984D8A5D985D8A7D8B1D8A7D8AAD98AD8A9
D8B1D981D8B9D8AA
D8A7D984D988D8B8D98AD981D8A9
D981D8A3D986D8A7
D8AAD8AFD8B1D98AD8ACD98AD8A7
D985D8B1D8ADD8A8D8A7
D988D8A7D984D983D8B1
D8A7D984D985D8ADD8AFD988D8AFD8A9
##D8ACD8B2D8A7D8A1
D8A7D984D985D8BAD8A7D8B1D8A8D8A9
D8A7D8B9D984D986
D8A7D984D8B3D984D98AD985
##D8AAD985D8A7
D8A7D984D8A8D8B7D988D984D8A7D8AA
##D8A7D8B2D98AD986
D8B4D98AD983
##D8B2D988D984
D8A7D984D985D8AAD988D8B3D8B7D8A9
D8A8D8A7D98AD8B1D986
##D981D988D8B1
D8A7D984D987D8A7D985
D8A7D984D8B9D982D8A7D8B1
D8A3D8ADD8AFD987D985D8A7
D8AAD8AFD8A7D8B9D98AD8A7D8AA
D8A7D984D8A7D8B3D8AAD8B9D985D8A7D8B1
D8A8D981D8B1
D8A8D986D8AF
D8A7D8B1D98AD8AF
D8A7D984D8ACD8AFD988D984
D8A7D984D8AED8A8D8B1D8A7D8AA
##D985D985D8A9
D8A7D984D8B5D8A7D8AFD982
D981D8B3D8AA
D985D8AFD8AED984
D8AAD8AAD988D982D981
D8AAD8AAD981
##D8B5D8B1D8A7D8B1
D98AD8ADD982
D8A7D984D8A3D986D8B3
D98AD8B3D8ACD984
##D8A7D8B5D984D8A7D8AA
D985D8AAD985D98AD8B2D8A9
D8A7D984D8B3D988D981D98A
D984D8B5D8AD
##D8A7D987D986D8A9
D8A7D984D8B3D8A8D8A7D8ADD8A9
##D988D8A8D987
##D98AD8ADD8A9
##D8A7D984D8A8D8A7
D8A7D984D985D8AAD8B5
D8A3D981D8A7D8AFD8AA
D984D988D8AD
D985D8B9D986
D8B9D8A7D8A6D8B4D8A9
D8A7D984D8A5D8BA
D8A7D984D988D8A7D981
D8B5D8AFD8B1D8AA
D8A7D984D8A8D8B9D8AF
D8A7D984D8A7D8B3D8AAD8BA
##D8AAD8AED8A7D8B0
D8A7D984D983D988D983
D8AAD8B9D8A7D8AFD984
D8A7D984D8B8D984D985
D8A7D984D988D981D8A7D982
D98AD8B3D8A3D984
D8A8D985D988D982D8B9
D8B3D8AAD8B3
D98AD985D98AD8B2
##D988D987D985
D8A7D984D8B1D8A7D8A8D8B7D8A9
D8ADD984D982D8A7D8AA
D8A7D984D8A7D8B9D8AF
##D982D8AFD8B3
D8AAD987D8AAD985
D8A7D984D8ADD988D8A7D8AFD8AB
D8A7D984D985D8AAD985D98AD8B2
D8ACD986D8B3D98AD8A9
D8A8D8A7D984D8AAD8A7D984D98A
D8ADD8B1D98AD982
D8AAD988D8B6D8AD
##D988D983D8A9
D985D986D8B8D985D8A7D8AA
D981D8B9D986D8AF
D8A7D984D8AAD8A8D8B1
D981D988D8AC
##D988D986D8AC
D8B6D8A8D8A7D8B7
D8AAD8ADD8B3D986
D8B3D988D8AFD8A7D8A1
D8AAD986D981D98AD8B0D987D8A7
D985D8ADD8A7D8B1D8A8D8A9
D982D8A8D8B1
D988D8AAD982D988D985
D8A7D984D986D8B8D8B1D98AD8A9
D98AD8ADD984
D8B4D985D984D8AA
D988D8AAD8B9D985D984
D8AAD985D983D98AD986
D8AAD984D8A8D98AD8A9
##D8B1D98AD981D8A9
D8A7D984D982D8B1D98AD8A8D8A9
##D8A7D986D98AD986
D985D985D8A7D8ABD984D8A9
D8A7D984D8B4D987D8B1D98AD8A9
D986D8A7D987
D8AED8B7D98AD8B1
D8A8D8A7D984D8AAD982
##D985D984D987
D98AD8B1D8AA
D8AAD8B1D981D8B9
D8A7D984D985D984D8A7D98AD98AD986
D985D8ADD8A7D8AFD8ABD8A7D8AA
##D98AD986D98AD988
D8A7D8B1D8B3
D985D8A7D8B2D8A7D984
D98AD981D8B3
##D8AFD8AFD98AD986
D8A8D8B6D8B9
D986D8A7D8AFD989
##D985D986D98A
D8A7D8B3D985D8A7D8A1
D8A5D98AD981
D983D984D8A8
##D988D8A7D985D8B1
D8A7D984D985D8ADD8AAD8B1D981D98AD986
D8A7D984D8AAD8ADD982D982
D8A8D8B9D8ABD8A9
D8A3D8A8D8B9D8AF
D8A7D984D8AAD8ADD983D98AD985
##D98AD8B1D983
D985D8B9D984D985
##D8A7D984D985D8A7D8AA
4844
D8A7D984D8B7D984D982
D8A5D8ADD8B5
##D982D98AD8A7
##D985D984D987D8A7
##D8AAD983D8B4D8A7D981
D8A7D984D8B2D987D8B1
D988D8A7D984D8ACD985
D8A7D984D8AAD8B9D8AFD98AD984D8A7D8AA
D8A7D984D8A7D98AD8B7
D8A7D984D8A7D8B1D8AFD986D98AD8A9
D8B2D8ACD8A7D8AC
D988D8AAD986D981D98AD8B0
##D983D8B1D8A7D986D98AD8A7
D985D8AAD988D982D8B9
D8A7D984D985D8A4D8B4D8B1D8A7D8AA
D8ADD986
D8A7D984D8ACD985D8A7D8B9D98AD8A9
D8ADD8B2D985D8A9
##D98AD8AAD983
D8A7D984D8ADD983D98AD985
D8AED988
D98AD8B3D98AD8B1
D985D988D8A8D8A7D98AD984
D8B4D8AFD8AF
D8A8D982D8B1D8A7D8B1
D988D8ACD987D8A7D8AA
D8A8D985D8B5
D8A7D984D983D8B1D8A8D988D986
D8A8D8AAD988D981D98AD8B1
D8A7D984D985D8ADD8AAD8AC
D8B9D984D98AD8A7
D988D988D8B2D98AD8B1
##D8B7D98AD8A9
D98AD982D984D984
##D988D8AFD987D8A7
D8A8D984D8A7D8AFD986D8A7
D8AFD982D8A9
D8A7D986D8B7D984D8A7D982D8A7
D8A7D984D986D8ACD985D8A9
##D981D98AD984D985
D8A7D984D8A7D8ADD8AAD8ACD8A7D8ACD8A7D8AA
D988D8A5D8B9
D987D8A7D8A6D984D8A9
##D984D981D987
D8B4D8B1D983D8AAD986D8A7
476F6F676C65
D8A8D8B5D988D8AA
D985D8AFD988D986D8A9
D8A7D986D8AAD8AED8A7D8A8
##6F64
D8A7D8ACD8AAD985D8A7D8B9D8A7D8AA
D981D8B3D8A7D8AAD98AD986
D988D988D8ACD8AF
D8A7D984D8AED984D8A7D981D8A7D8AA
D988D8A7D984D985D8BA
D988D8A7D8B5D984
D981D8ACD8A3D8A9
D8A7D984D984D98AD985D988D986
##D8A7D98AD98AD986
##D8A7D981D8A7
D988D8A7D984D8A7D8B3D8AAD982D8B1D8A7D8B1
D984D8A2D8AED8B1
##7261
D8A7D984D8B3D8B9D98AD8AF
D8A8D988D8AF
D8A7D984D8AAD984D981
##D8A7D988D98AD986
D8A7D984D8A3D986D981
##D982D8B3D985
D8A7D984D985D8B1D985D989
D8A7D984D8A7D8ACD8B1D8A7D8A1D8A7D8AA
D8A7D984D8ACD985D8A7D8B9D98A
D8A7D984D8A5D8AED8A8D8A7D8B1D98AD8A9
D986D8ADD8AAD8A7D8AC
D8B3D8B1D98AD8A9
D8ACD8A8D8B1
D8AAD8AAD8B1D983
D8AED8A8D98AD8B1
D8A7D984D8B2D988D8ACD98AD8A9
D8A7D984D986D98AD8A7D8A8D98AD8A9
D8A7D984D985D8AED8AA
D8AAD8ABD8A8D8AA
##D8A7D8B4D982
D984D984D8A8D8B1
D988D8A7D984D8AAD8ACD8A7D8B1D8A9
##D8A7D8A8D987D8A9
D983D984D98AD986
D8A7D984D984D8ADD985
D8A7D984D985D8B5D8B1D981D98AD8A9
D8A3D986D982D8B1D8A9
##D8B4D98AD8B1D8A9
D8ADD8B3D986D98A
D8B3D8A7D8B1
D987D988D8A7
D8A7D8AED8AAD8B1D8A7D982
D988D8A7D984D8AFD988D984D98AD8A9
##D8B1D8A7D8A6D982
D8ACD984D8AF
D8A7D984D8B9D8B4D988
##D8AFD8B9
D983D986D98AD8B3D8A9
D8A7D984D983D8A7D8AA
##D982D98AD985D8A9
D8BAD8A7D985
D985D982D8A7D8B9D8AF
D8A7D984D8A3D988D8B3
##6C69
D8A7D984D8A3D8B1D8B6D98AD8A9
D8AAD8B4D8AED98AD8B5
D8B1D8A7D8ADD8A9
##D8A7D8AFD98AD8B1
##D8B9D984D983
D985D8ADD984D8A7D8AA
D8B4D8B9D988D8A8
##D981D984D988D986D8B2D8A7
D8A7D984D8A8D987
D8A8D8A7D984D8AAD8B1
D8A8D8A7D984D8AAD8AC
D8A7D984D8A3D8B3D985D8A7D983
D988D8AAD985D983D986
D8A7D984D8A7D985D985
##D984D988D985D986D98AD988D985
D8A7D984D986D985D8B3
D8A7D984D8A5D98AD8ACD8A7D8A8D98AD8A9
D8A7D984D8B9D984D988D98A
3732
D8B9D8B4D988
D988D8A7D984D8B1D988
##D988D8B1D98AD988D8B3
D8A8D988D8B5D981
D988D8AAD986D8B8D98AD985
D988D8A5D8B5D8A7D8A8D8A9
D98AD8ADD983D985
D8ADD982D987
D8A5D98AD985
D8A7D984D8B3D988D8A8D8B1
D8A7D8B3D8AAD8ACD8A7D8A8D8A9
D8A8D985D8B1D8B6
##D988D984D988D986
D8A7D984D985D8B3D8A7D8A1
D8B7D8A7D988D984D8A9
D8A7D984D985D988D8A7D8B5D981D8A7D8AA
##D985D8A7D986D8A9
##D8AAD8ADD8A7D8B1
D985D8ADD8A7D983D985D8A9
D8A7D984D983D981D8A7D8A1D8A9
D988D8AAD8BA
D8A8D8A7D984D8AAD986D8B3D98AD982
##D8AFD98AD985D987
##D8A7D982D98AD986
D8B9D985D8B1D987D8A7
D988D985D983
D8A7D984D985D8B9D8AAD982D984D98AD986
##D984D988D987
##D8AAD987D8A7D983D8A7D8AA
D8ACD985D98AD8B9D987D8A7
D8A7D984D985D982D8A7D8AA
D8A7D984D986D8B3D8A8
D8A7D984D981D988D984D8A7D8B0
D985D8B9D8A7D984D985
##D8A7D8B3D987
D8A8D8ADD8ABD8A7
D8A3D98AD985D986
D8A3D983D984
D8AAD986D8B7D984D982
D988D8A8D8B3
D8A8D8ACD987
##D984D8A7D988D98A
D985D8ADD8A8
##D8AAD8B1D8A7D982
D8B3D983D986D98AD8A9
D983D984D985D8AAD987
D988D8A8D987D8B0D8A7
D985D985D98AD8B2D8A7D8AA
D8A7D984D8B3D98AD8A7D8ADD98A
D8AFD8B1D988
D8AAD8ACD985D98AD8B9
D8A7D984D8AAD8B1D8A8D8A9
D984D988D982D981
D8AAD988D8B6D98AD8AD
D8A7D984D985D986D8AED981D8B6
D8A7D984D986D8A7D8B5D8B1
D8B9D8A7D8AFD98AD8A9
D988D8ADD982D988D982
D8A7D984D8A7D986D8AAD8A8D8A7D987
D98AD8AAD8B9D98AD986
D8A7D984D8AAD984D982
D984D984D8AAD8B9D8A7D985D984
D988D8B9D8A7D8A1
D988D8A7D984D8B4D8B1D983D8A7D8AA
D985D8B1D8AAD8A8D8B7D8A9
D8A7D984D8B5D8BAD8A7D8B1
D8B4D8B1D982D98A
D988D8A7D984D989
D983D98AD8B3
D8A7D984D8ACD98AD8B2D8A9
##D8BAD8B1D8A7D985
D988D8B1D8AC
D8A7D984D985D8A7D8AFD98A
##D984D8A8D8B3
D984D984D8AAD8A3D983D8AF
D8A7D984D982D8A8D8A7D8A6D984
D8A3D8AED8B1D8AC
D8A7D984D8A7D8B1D8AAD981D8A7D8B9
D8A7D984D8ADD8ACD8A7D8B1D8A9
D985D8AFD98AD986
D8A8D8A7D984D8B4D983D984
D8B6D98A
D985D8B3D8AAD982D8A8D984D8A7
D988D982D98AD984
D988D8A7D984D8B1D8B3
##D8AAD8B1D8ADD8A7D8AA
D98AD8AAD982D8AFD985
D8A7D984D984D8B3D8A7D986
D8A7D984D8A8D8B5D8B1D8A9
D8A3D982D8B3D8A7D985
D988D8B6D8B9D987
D8A7D984D8A7D985D986D98AD8A9
D8ADD985D984D8A7D8AA
D8B9D8A7D8AFD8AA
##D8B3D98AD8AE
D984D8B9D8B1D8B6
D8A7D984D985D8ACD8A7D986D98AD8A9
##D986D8AAD8B8D8B1
D8B5D8A7D8ADD8A8D8A9
D8A7D984D8B1D8B5D8A7D8B5
##D8A7D8ABD8B1
##D8B5D8B1D98A
D8A7D984D985D8B3D98AD8B1D8A9
D8B4D8AAD989
D98AD8B9D986D989
D8A3D8AED8B7D8A7D8A1
D8B3D8A7D8B1D8A9
D8A7D8ACD8AAD985D8B9
D985D8B3D8B9D988D8AF
D8A5D986D8B4
##D8A8D987D8A7D8AA
##D8A7D8B1D981D988D8B1
D8A7D984D981D8A7D8A6D8B2
D8A8D988D8B6D988D8AD
##D8A7D983D8A8D8A9
D984D984D985D986D8AAD8AED8A8
D8A7D984D986D987D8B1
D8AAD8B3D8B9D8A9
D985D8B3D8AAD8B9D8AF
D8AAD983D985D986
D8A7D984D8B2D8B1D8A7D8B9D98A
D8A8D987D8AFD981D98AD986
5553
D985D8ADD981D988
D8A7D984D8A8D984D8AFD8A9
D984D8A7D984
##D988D8A7D8B1D8AF
D98AD982D8B5D8AF
D988D8A7D8B2
D8ADD98AD8A7D984
D8A7D984D8ADD8B4
D987D988D98A
D988D8A7D984D986D8B3D8A7D8A1
D8A7D984D983D987
D8A7D984D98AD8AFD98AD986
D8A7D984D8A7D8B3D8B1D8A7D8A6D98AD984D98AD8A9
##D983D8A7D988D989
##D8B4D8B9D8B1
##4544
##D8A7D8A4D984D8A7D8AA
D985D986D8B5D8A7D8AA
D985D986D8B7D982
D8A7D984D985D988D8B1D8AFD98AD986
D8A7D984D985D8AAD985D98AD8B2D8A9
D8A7D8B3D8AAD8A8D8AFD8A7D984
D8A7D984D98AD8A7D8A8D8A7D986D98A
##D8B9D8A7D986
D8A5D984D8AE
##D984D985D988D986
5265
##D8B9D98AD987
D8A7D984D8A3D988D984D98A
D8A7D8AAD8B5
D8A7D984D8B9D8B6D988
D8A5D8B4D8A7D8B1D8A7D8AA
D8A7D984D8AAD8AFD8B1D98AD8A8D8A7D8AA
D8A7D984D8ACD8AFD8A7D8B1
##D988D984D988D8ACD98A
D981D8A7D984D8B9
D984D988D98AD8B3
D8A3D8ABD8A8D8AAD8AA
D8A7D984D8B4D988
D8A7D984D8B7D98AD8A8D8A9
D8AAD8B5D8ADD98AD8AD
D988D986D8B8D8A7D985
D988D8B3D988D8B1D98AD8A7
##D8ADD8A8D8A7D8B7
##D986D8A7D8B9D8A7D8AA
D986D987D8AC
D8B9D8A7D8A6D8AF
D98AD8ADD8B6D8B1
D8A7D984D8A3D8B3D985D986D8AA
D8ACD8AFD8A7D8B1
D985D8B3D8AAD982D984
D8AAD8AED8AA
D984D988D984D8A7
##D8AAD983D8B1D8A9
D8A7D984D8A3D8B0
D8A7D984D8AED8B3D8A7D8A6D8B1
D8A7D982D988D984
D8A7D984D8B1D8A7D8A6D8AF
##D984D98AD8B7
D982D8B1D8A3
D8A7D984D986D8B3D8A7D8A6D98AD8A9
D8B4D987D8B1D98AD8A7
D8AAD8B1D981D8B6
D98AD8B9D982D8AF
D985D983D8B9D8A8
D8A8D985D8A8D984D8BA
D988D98AD982D8AFD985
D8A7D984D985D983D8AAD8A8D8A9
D8A7D8ACD8AAD985D8A7D8B9D8A7
D984D8A7D987
D984D98AD8AAD985
D8ACD986D98AD987D8A7
D8A8D8A7D8AF
D8AAD8ADD8AFD8ABD8AA
D8A7D984D8A5D8B5D8AFD8A7D8B1
##D981D8A7D8A1D8A7D8AA
D8ABD984D8A7D8ABD98AD8A9
D8A8D8A7D8A8D8A7
D8A7D984D8B9D8B6D988D98AD8A9
D8A7D984D8B6D8B1D8B1
D8A7D984D8A3D983D8B3
D8A5D8B2D8A7D8A1
D8A7D984D985D8ABD982D981
D8AAD8AFD8B1D98AD8A8D98AD8A9
D8B9D8ACD984D8A9
D988D8A7D8B1D8AAD981D8A7D8B9
D8A7D984D981D8B1D8A7D8BA
D8B4D987D8AFD8A7D8A1
E28094
D8A7D985D8B1D98AD983D8A7
D8A7D984D985D982D8B5D988D8AF
##D98AD8A8D8A7
D987D984D8A7D984
##D988D8AAD988
##D98AD986D98AD98AD986
##D8AFD8B1D8A9
D988D8A7D984D8ADD8B5D988D984
D8B9D985D984D8A7
D8B3D8B1D8A7D8AD
D8A7D984D8B1D8A8D8A7D8B7
##D8A8D988D986
##D8B3D8AAD988D8B1
D8A7D984D8A5D8A8D8AF
D8B3D8B9D988D8AFD98AD8A9
D8A5D982D8B1D8A7D8B1
D8A7D984D98AD988D986D8A7D986
D8B9D984D985D98A
D8A7D984D8B9D8A7D984
##D8A8D8AFD984
D8A7D984D983D8B1D98A
D988D983D985
313931
##D8A7D981D8B2
D8A7D984D985D8B5D8A7D8A8
D8A7D984D8AAD8B1D988D98AD8AC
D8A7D984D8B9D8AAD98A
##D8B9D8AFD8AA
D8AAD8A8D986D98A
D8A7D984D985D8AED984
D8ADD985D98AD8AF
D983D98AD8B1
D986D8AAD8ADD8AFD8AB
D8A7D984D8AED985D8B3D8A9
D8A8D98AD8AAD987
D98AD986D8B8D985
D8B9D982D988D8A8D8A9
D8A7D984D983D8B1D988
D8B4D8A7D8AA
D8A8D8AAD8AE
D983D8AD
D988D8A7D984D988D984D8A7D98AD8A7D8AA
D985D8B4D8B1
D8AFD988D8B1D987
D8A7D984D8A8D8B4D98AD8B1
##D8AAD8B1D8B7
D8A3D8B9D985D8A7D984D987
D8AAD8B1D8A8D8B7
D982D985D986D8A7
5374
D988D8A7D984D8ABD8A7D986D98AD8A9
D8A8D985D982
D8A7D984D8A5D8B1D987D8A7D8A8D98A
3633
D8A7D984D8A2D8A8D8A7D8A1
D984D984D8ADD98AD8A7D8A9
D8AAD8A7D98AD985D8B2
D985D8B3D8AAD8AED8AFD985D98A
D8ADD988D8A7D984D989
D8A7D984D983D8A7D8B1
D8B9D8AFD8AFD987D8A7
D986D8ACD98AD8A8
D982D8B1D8A7D8A1
D985D8AAD8B9D8AFD8AF
D985D8AED8A7D984D981
##D986D8A7D8B5D8B1
D8B1D8A7D8ACD8B9
D985D8B1D98AD8B6
##D8AAD8ACD987
D8B4D987D8A7D8AFD8A7D8AA
D8A7D8B5D8B7
D988D8A7D984D8ABD982D8A7D981D98AD8A9
D8A7D8ACD987D8B2D8A9
D988D8A3D8B9D8B6D8A7D8A1
##D984D8A8D8A7D8AA
D8A7D984D8A7D986D8AAD8B8D8A7D8B1
D8A7D984D8A7D8B3D8B9D8A7D8B1
D98AD8B3D987D984
D8A7D984D8B5D988D8A7D8B1D98AD8AE
D984D8A7D986D987D8A7
D984D8A8D8ADD8AB
D8A7D984D8B9D8B4D8B1D8A7D8AA
D8A7D984D985D986D8A7D8B9D8A9
D8AFD981D8B9D8A9
##3431
D982D8A7D8AFD8B1D8A7
[...]
